[PAD]
[UNK]
[CLS]
[SEP]
[MASK]
à
##à
á
##á
ã
##ã
ạ
##ạ
ả
##ả
ă
##ă
ắ
##ắ
ằ
##ằ
ẳ
##ẳ
ẵ
##ẵ
ặ
##ặ
â
##â
ấ
##ấ
ầ
##ầ
ẩ
##ẩ
ẫ
##ẫ
ậ
##ậ
è
##è
é
##é
ẹ
##ẹ
ẻ
##ẻ
ẽ
##ẽ
ê
##ê
ề
##ề
ế
##ế
ể
##ể
ễ
##ễ
ệ
##ệ
đ
##đ
ì
##ì
í
##í
ĩ
##ĩ
ỉ
##ỉ
ị
##ị
ò
##ò
ó
##ó
õ
##õ
ọ
##ọ
ỏ
##ỏ
ô
##ô
ố
##ố
ồ
##ồ
ổ
##ổ
ỗ
##ỗ
ộ
##ộ
ơ
##ơ
ớ
##ớ
ờ
##ờ
ở
##ở
ỡ
##ỡ
ợ
##ợ
ù
##ù
ú
##ú
ũ
##ũ
ụ
##ụ
ủ
##ủ
ư
##ư
ứ
##ứ
ừ
##ừ
ử
##ử
ữ
##ữ
ự
##ự
ỳ
##ỳ
ỵ
##ỵ
ỷ
##ỷ
ỹ
##ỹ
ý
##ý
À
##À
Á
##Á
Ã
##Ã
Ạ
##Ạ
Ả
##Ả
Ă
##Ă
Ắ
##Ắ
Ằ
##Ằ
Ẳ
##Ẳ
Ẵ
##Ẵ
Ặ
##Ặ
Â
##Â
Ấ
##Ấ
Ầ
##Ầ
Ẩ
##Ẩ
Ẫ
##Ẫ
Ậ
##Ậ
È
##È
É
##É
Ẹ
##Ẹ
Ẻ
##Ẻ
Ẽ
##Ẽ
Ê
##Ê
Ề
##Ề
Ế
##Ế
Ể
##Ể
Ễ
##Ễ
Ệ
##Ệ
Đ
##Đ
Ì
##Ì
Í
##Í
Ĩ
##Ĩ
Ỉ
##Ỉ
Ị
##Ị
Ò
##Ò
Ó
##Ó
Õ
##Õ
Ọ
##Ọ
Ỏ
##Ỏ
Ô
##Ô
Ố
##Ố
Ồ
##Ồ
Ổ
##Ổ
Ỗ
##Ỗ
Ộ
##Ộ
Ơ
##Ơ
Ớ
##Ớ
Ờ
##Ờ
Ở
##Ở
Ỡ
##Ỡ
Ợ
##Ợ
Ù
##Ù
Ú
##Ú
Ũ
##Ũ
Ụ
##Ụ
Ủ
##Ủ
Ư
##Ư
Ứ
##Ứ
Ừ
##Ừ
Ử
##Ử
Ữ
##Ữ
Ự
##Ự
Ỳ
##Ỳ
Ỵ
##Ỵ
Ỷ
##Ỷ
Ỹ
##Ỹ
Ý
##Ý
A
##A
a
##a
B
##B
b
##b
C
##C
c
##c
D
##D
d
##d
E
##E
e
##e
F
##F
f
##f
G
##G
g
##g
H
##H
h
##h
I
##I
i
##i
J
##J
j
##j
K
##K
k
##k
L
##L
l
##l
M
##M
m
##m
N
##N
n
##n
O
##O
o
##o
P
##P
p
##p
Q
##Q
q
##q
R
##R
r
##r
S
##S
s
##s
T
##T
t
##t
U
##U
u
##u
V
##V
v
##v
W
##W
w
##w
X
##X
x
##x
Y
##Y
y
##y
Z
##Z
z
##z
0
##0
1
##1
2
##2
3
##3
4
##4
5
##5
6
##6
7
##7
8
##8
9
##9
,
.
?
!
'
"
(
)
:
;
+
-
<
>
=
&
\
/
@
#
$
%
*
và
của
có
là
được
một
trong
các
cho
không
với
người
đã
những
này
khi
để
năm
ra
công
thể
đến
vào
về
cũng
từ
tại
đầu
đó
sẽ
như
bị
trên
nhiều
lại
làm
đồng
nhà
sự
số
phải
hiện
thành
tôi
việc
ngày
chỉ
động
hàng
nước
ông
học
gia
hơn
còn
Nam
nhất
quan
định
sau
con
nhân
nhưng
Việt
chính
đi
thời
anh
thì
giá
mà
trường
mình
biết
thế
mới
điều
đang
bạn
rất
hình
qua
theo
trước
cơ
cùng
thực
sinh
nhận
viên
cả
hợp
hành
hai
nên
họ
lên
phát
dụng
tháng
vì
cao
thông
tình
dân
điểm
sản
khác
nói
tin
vẫn
lý
Quốc
##ng
cách
tới
tiếp
vụ
do
xuất
bộ
trình
đối
giải
tế
đây
cầu
Trung
xe
kết
nay
tăng
hội
cuộc
lượng
tiền
thấy
lớn
rằng
đường
cô
chức
độ
tư
nghiệp
thủ
giới
máy
năng
ảnh
Anh
chủ
Theo
nhiên
bằng
hay
mặt
diễn
tự
nào
thị
dự
phần
kinh
Trong
yêu
đội
lần
Hà
tâm
tính
thường
bản
em
tác
sử
cấp
khu
gian
Mỹ
chúng
án
doanh
chưa
vị
khách
lực
tuổi
đề
bán
toàn
sĩ
triệu
trở
quả
báo
quốc
cần
tỷ
cảm
thứ
10
tài
sống
tạo
ăn
đại
Công
quá
bảo
thi
chiến
hệ
Nguyễn
giao
thương
tiên
đấu
000
ty
thống
gần
liên
trọng
đưa
quyết
tay
tập
trận
ta
hiệu
bắt
giờ
điện
quân
trị
phòng
trung
thu
gì
trẻ
triển
nhau
phẩm
mua
an
đều
tục
Bộ
bệnh
bất
tiếng
khoảng
giảm
loại
tìm
bóng
tham
trang
hoặc
Tuy
ngoài
xã
dùng
thiết
pháp
vậy
dịch
muốn
chất
thức
đình
đánh
tiêu
tích
đạo
thuộc
giúp
tốt
vật
hóa
Tôi
cổ
mạnh
bố
nữ
chiếc
chị
tổ
Các
vực
bay
phương
thêm
biệt
hoạt
bà
quyền
khiến
sáng
trưởng
bên
mẹ
vừa
tỉnh
khó
sát
tên
Nội
đổi
bình
bao
địa
lập
mang
thân
sao
tra
chuyển
cảnh
đơn
từng
bàn
hoàn
lời
Ảnh
rồi
đất
gây
diện
vấn
nếu
phố
mức
dẫn
kỳ
lúc
giữa
chế
Một
kế
Sau
vệ
cứu
chuyện
nó
chứng
sở
chơi
đặc
hết
phim
thay
văn
Văn
sức
đẹp
phụ
kiến
ấy
cáo
Ông
quy
phục
sân
trí
cái
chồng
ứng
khai
ca
mất
TP
bỏ
tượng
nghệ
bởi
chọn
sách
nhỏ
dài
phía
gái
cá
tàu
thích
giả
dựng
nơi
cuối
giữ
12
nhập
mọi
khoa
mỗi
mắt
thắng
Thanh
chi
so
gặp
Bình
Những
tranh
xem
phân
truyền
biến
vợ
loài
USD
nhiệm
biển
chia
thuật
2014
vô
vùng
lợi
Minh
chung
xây
nữa
trợ
ngay
ban
nguyên
đoàn
vi
nổi
biểu
tử
tiết
chuyên
tiến
20
chí
khả
tương
luôn
dù
hướng
danh
ba
hộ
liệu
lịch
tổng
gọi
kiện
kiểm
đặt
mùa
đá
hoa
đạt
vàng
chương
xác
Đức
đời
kể
nhạc
vòng
phủ
đủ
mở
xử
vốn
thanh
quản
ít
Nhưng
phạm
Hải
bé
11
Khi
viện
màu
Nga
Hoàng
Đại
tuần
chân
xuống
hạn
sang
giáo
lấy
ký
Đông
Nếu
khá
trả
Tổng
huyện
Người
tinh
bài
dưới
hôm
hỏi
gồm
2013
nghĩ
ai
rõ
thật
yếu
tất
luật
minh
phí
mục
Nhà
cửa
cố
Nhật
sắc
nghị
Không
trái
cứ
mạng
ngân
đáng
cạnh
nhóm
nội
HCM
mô
nạn
câu
30
Chính
đồ
du
15
nhanh
hưởng
Có
Tây
ngành
khí
tướng
tối
Dương
chuẩn
lòng
hậu
dễ
Đây
Thái
trò
trai
Bắc
phong
nhìn
nghiệm
đông
đàn
phép
Thị
tấn
độc
ghi
thoại
rộng
phiên
cung
nằm
đêm
chạy
nguồn
đóng
An
tịch
áp
Lan
càng
phút
đúng
hiểu
đôi
mẫu
đảo
âm
dành
hoạch
trực
Ngoài
chết
Với
hòa
sẻ
phiếu
trạng
châu
da
ngoại
hữu
thần
riêng
đốc
xảy
nghĩa
Lê
vọng
Trần
tố
khăn
Sơn
khẩu
Năm
xét
Hoa
áo
chống
Thành
xa
phản
đoạn
Trước
lãnh
chịu
tả
hồi
đứng
vai
kỹ
thư
đầy
Ngọc
di
Ban
chiều
lưu
hát
khỏi
thuốc
hỗ
nam
kiếm
gửi
cực
vận
Từ
100
quận
Chủ
ngôi
lệ
giám
luận
kỷ
phá
thiếu
cây
vài
căn
tưởng
Pháp
đảm
nghe
đăng
chấp
dục
khoản
đa
Tại
xin
đô
vui
Ngày
tuyển
viết
tội
lộ
lo
Chúng
trách
cánh
Bản
nhằm
thấp
chú
giống
cộng
Thủ
Liên
màn
hồ
16
Hội
bước
lễ
lâu
suất
Hiện
dung
Long
góp
vượt
kéo
Đồng
14
ngờ
tải
sơ
nghiên
tín
HLV
dòng
Điều
môn
Vì
lao
nặng
hãng
lớp
bác
chẳ
quay
Loà
18
Phương
nhớ
khẳ
thất
tuyên
sư
buổi
nguy
đau
duy
tức
mặc
chắc
nền
Phó
cụ
toán
cử
13
xúc
tỏ
vũ
hiểm
tòa
hạng
quý
chiếm
đỏ
hạ
Trường
Hàn
giành
vẻ
mại
thúc
khỏe
lĩnh
Cô
Phú
Hồ
môi
đâu
hôn
17
tốc
21
Do
hại
uống
25
Kỳ
Tết
50
nâng
kích
tuyến
niên
sớm
Thế
mong
tai
bức
đe
phạt
phối
thưởng
bảng
thiện
trắng
thuận
miền
Hai
hút
sâu
nhờ
Kim
nợ
dầu
nghỉ
cải
Nhiều
khán
cư
Nguyên
Xuân
Bà
địch
khởi
cháu
siêu
huy
phù
xếp
bầu
quanh
đẩy
họa
buộc
Âu
nghi
Và
phúc
nóng
lạc
thuế
2012
dạng
trời
Hồng
ổn
19
cầm
Để
cũ
thử
22
Quang
sai
nhiệt
24
chỗ
Còn
món
xuyên
chứ
km
dấu
chuyến
Linh
Hòa
mối
nhẹ
cha
nông
xanh
biên
tránh
Vũ
trao
quần
lửa
Man
nghề
quen
The
chờ
ngồi
thẳng
tiện
phóng
may
soát
lẽ
vay
ấn
bổ
Châu
lựa
nuôi
Ngân
đào
League
Việc
Phạm
bại
cân
giác
khúc
tiểu
Quảng
thái
thảo
thú
sông
Bạn
làng
chụp
suy
Mai
máu
nghiêm
Ba
thăm
Giang
Tuấn
chỉnh
coi
Tân
đổ
Họ
chăm
song
tái
hạnh
ưu
mật
sợ
quán
lượt
sẵn
ngủ
Chỉ
giấy
suốt
thẩm
Hương
giai
cán
Như
500
khối
Đến
thủy
lỗi
hải
Dũng
trì
thuê
thua
nối
binh
Lý
nhu
Ninh
luyện
tặng
đón
rút
loạt
23
thừa
lãi
giản
mắc
dưỡng
tầng
đáp
đen
đọc
to
xấu
cường
kiểu
đứa
##href
hãy
Giám
tạm
khắc
họp
thí
pha
Sở
ngắn
quê
kẻ
lệnh
40
phi
Bảo
khủng
cười
Đó
Bên
cấu
ước
Kinh
sắp
Sự
hạt
bày
chắn
hấp
2011
chàng
đương
kém
Chelsea
dần
trải
chữa
Nha
Ukraine
khảo
tuyệt
buồn
chóng
thôi
cậu
Thu
VN
mã
game
bánh
Real
niệm
Thông
lương
hoàng
ánh
2010
Phòng
cứng
tận
Nhân
lai
hơi
thậ
mộ
cưới
khoán
ngại
Chi
200
tầm
thiên
cập
La
lạ
lá
phê
Em
Đà
cắt
hầu
Hùng
sóng
dây
tộc
Cũng
Cup
băng
khám
lái
Dự
thuyết
bật
Trang
trụ
Gia
Nó
thao
Con
gốc
hài
Khánh
ninh
Quân
mấy
kính
tóc
rơi
mềm
chút
27
cận
gắn
phường
kim
biện
lục
Tiên
thịt
bang
thai
26
Arsenal
thụ
UBND
sửa
chữ
tờ
Dù
Tài
ích
đua
niềm
tim
ủng
ma
phận
bạc
##idae
đột
xung
đích
tồn
sữa
dàng
ngăn
hy
truy
cháy
28
cặp
gắng
nhiễm
nổ
lạnh
núi
Về
City
Cục
lược
mưa
lắm
bí
Chí
dịp
Luật
mái
mời
Malaysia
thiệt
Độ
phổ
dáng
chợ
thoát
Thời
Phát
chiếu
hương
rời
sung
chứa
nửa
tung
Ngoại
ngữ
Bện
nhật
Sa
đám
ly
Ấn
##yến
Hưng
sóc
khóa
bè
kịp
sàn
in
vé
Giá
Hiệp
cấm
Lâm
trăm
thiệu
Ủy
dạy
cuốn
Phong
Ngay
Cơ
thầy
ràng
tù
Thiên
thơ
đòi
dứt
tuy
kịch
sàng
thẻ
dừng
net
Tiến
ngược
đoán
thỏa
60
dư
thác
nhắc
Trên
tắc
nhấn
Thủy
cú
Chị
liền
hè
chặt
Sài
ương
nắm
mê
miễn
video
Đình
nàng
sạch
tạp
Dân
can
lưới
tôn
liệt
Vào
Đối
Đảng
đỡ
dữ
khổ
hiệp
tệ
nghèo
đợi
DN
mơ
hề
cục
mỹ
Điện
New
Hàng
Phi
lẫn
rừng
Gòn
quà
cam
300
29
Cảnh
ngang
kia
trú
dựa
miêu
ngôn
Barca
Vân
chấn
kêu
thôn
31
Xem
nét
lắng
giết
chở
nhuận
tấm
tươi
xong
nghìn
Tâm
Đội
ủy
căng
chục
dương
nỗ
góc
2015
Mặc
kê
giàu
2009
mẽ
Biên
bắn
gió
cà
Kết
phán
Tổ
bào
linh
2008
bắc
Tập
nỗi
súng
nhảy
Vương
Tư
Nẵng
chậm
com
vn
Thứ
mừng
rượu
cựu
Giải
lối
35
Chiến
bờ
mãi
xu
Đầu
xứ
khắp
ngoái
Thương
yên
kèm
vỡ
Viện
Lúc
vững
http
Mỗi
phó
trùng
trấn
Huy
đoạt
trưng
vong
gấp
Phúc
Phan
sạn
khấu
Được
dụ
quên
Cuộc
sút
trúc
tây
Đặc
trừ
gương
Cao
Hóa
hẳn
lỗ
ấm
Chương
Tiền
đuổi
CLB
Triều
gói
Tất
cướp
đèn
quỹ
vết
gà
ống
sắt
rối
túi
mạch
hẹn
nắng
đài
Cách
bây
World
Trương
dõi
rau
Vietnam
Số
Nữ
Biển
dị
kg
dọa
già
loạn
váy
cơn
2007
chấm
chào
Yên
chạm
trông
Vĩnh
vua
Giáo
hồng
70
hào
Vinh
Cùng
ép
the
đợt
Liverpool
khóc
trồng
giọng
ĐT
mũi
Thực
mắn
80
huống
vnexpress
Đài
la
dao
tuc
thập
hủy
ơn
Đào
Madrid
khung
gỡ
Nghệ
đỉnh
Đoàn
Cả
miệng
##us
ngọt
rẻ
hộp
bốn
Khu
Hãy
html
Nguồn
Cộng
Vụ
xinh
Tình
sứ
hứng
rel
ngư
hoảng
trương
90
bò
chặn
Champions
ghế
lan
iPhone
đừng
Thắng
đàm
bãi
Tháng
đẳng
ngã
2006
thận
dậy
khiển
chảy
tán
kháng
đáo
Huyền
nguyện
phái
Cho
Cầu
Học
bụng
de
Định
Du
Giao
nộp
điệu
Đường
khuôn
khoan
hâm
tùy
huyết
bữa
xăng
khích
ngừng
##er
Samsung
đâm
khô
bối
mai
Ngô
Singapore
dám
ẩn
khoe
Song
thổ
ngon
tô
##ấy
ĐH
400
Kiên
kiệm
thuyền
trốn
##30
lẻ
of
Võ
huấn
điển
Hơn
bậc
Hữu
dày
trích
kho
Duy
giây
Báo
cơm
treo
nhắn
Hôm
phẫu
Thụy
Khoa
nhiêu
thách
Lưu
Australia
32
tiêm
kênh
nhi
ngầm
nêu
đấy
chối
thảm
Bởi
Cụ
cản
xưa
đĩa
lừa
lưng
ung
Loan
tá
Trọng
trữ
bom
Thượng
gỗ
tụ
pháo
Thuận
Máy
xuân
trứng
gợi
Chu
Nghị
viêm
sốt
Cần
Hồi
tiếc
cột
quang
45
Phần
Ca
Ronaldo
Tàu
thở
lành
gạo
làn
Bayern
David
bạo
buôn
Trưởng
Apple
class
Thảo
Chiếc
thăng
kín
inch
trộm
Ai
Vậy
hiếm
lầm
thờ
ôm
ôtô
mát
Hạ
ngựa
sa
cờ
Sáng
vời
Mặt
tỉ
ngực
co
thước
tường
tỏa
vương
trần
Cường
thù
tan
Thổ
Cổ
Tấn
bồi
xương
đập
túy
đền
sởi
Hình
Lương
vợt
##hậm
2005
tổn
Di
bão
dâu
xâm
ví
Bài
36
đạn
trúng
ngũ
hùng
vườn
Mã
lâm
đồn
2004
khuyên
não
phấn
nấu
hồn
Lead
vỏ
thang
mạc
hứa
đốt
Là
phức
dâm
mét
bọ
Mạnh
gọn
phỏng
thải
Hy
II
Quỳnh
ro
bó
Cuối
mệt
tròn
giáp
Phước
đãi
fan
trục
kiên
Hằng
trại
04
thoả
hoang
Windows
Toàn
Qua
thầu
Internet
trào
Thùy
lãng
su
mùi
duyệt
Thúy
giam
lông
phú
dinh
đảng
Nhĩ
Danh
Huỳnh
mực
nhượng
ga
răng
Huế
rửa
giàn
sắm
cãi
đậu
album
Bùi
tắm
Đỗ
br
giấu
Sinh
đắt
600
mưu
tứ
giỏi
Chiều
giảng
Tòa
chùa
ngàn
MU
clip
đậm
web
Reuters
Philippines
thiểu
thượng
uy
smartphone
săn
Facebook
chủng
sổ
lính
Bí
tràn
Nghĩa
trầm
ruột
che
Mẹ
cổng
lặng
chim
mảnh
vắng
Atletico
tắt
Mourinho
Tùng
sôi
tiềm
lãm
hối
đạp
truyện
tri
tốn
www
Xã
mỏi
dường
thả
Bác
Brazil
chúc
mệnh
bếp
va
ẩm
bền
chừng
Tam
Lai
xóm
Bị
hỏng
chó
xế
33
Đa
VnExpress
bột
My
bướm
Hậu
chuyền
lắp
giày
khen
giận
Tiểu
34
Nói
TV
giật
khẩn
vẽ
SN
2000
xứng
Bằng
Quan
800
Index
hảo
bù
đế
Lộc
cất
tật
tiệc
béo
Hoàn
Milan
nhánh
tang
hàm
2016
vây
Dung
Xây
##ch
Lào
diệt
Hoài
duyên
Sao
So
CP
##um
Quản
bổng
non
dọc
Mọi
Nhi
Tính
Trẻ
Đinh
cảng
giấc
Câu
pin
mỏng
York
37
camera
rủi
Trí
chốt
chìm
ngưỡng
Messi
tĩnh
nhé
đo
Điểm
vinh
Mới
lão
dính
38
hỏa
Tử
Italy
hư
Cái
niêm
tháo
Hành
sánh
2003
miếng
Galaxy
hiến
Đô
dàn
cỡ
thép
Diễn
Hợp
bạch
AFP
Quý
đà
đai
Lợi
Thi
Trinh
trống
lọt
Xin
tân
táo
AP
Ma
cương
say
150
triều
cỏ
Thường
Lễ
tu
túc
Tú
Van
Indonesia
Tiếp
Thiết
dắt
Nokia
tách
Hệ
trạm
canh
mãn
Trịnh
Riêng
Khoảng
Trá
lệch
Làm
2002
bớt
bề
hô
bi
chín
hắn
Đặng
bốc
Na
Xô
Nông
HD
Tường
TS
trật
bia
lồ
than
bám
Android
Đã
viễn
nhịp
giường
ACB
Hiếu
ha
bọn
London
chu
Nhất
nhãn
rác
mạn
thó
khớp
Google
tông
John
Quy
Tự
sót
khổng
nhàng
Trận
Tin
tàng
08
bến
Sĩ
ngập
ngộ
Chánh
đựng
Sony
##ia
Quyết
Thống
xóa
Doanh
01
chua
mm
Hạnh
thơm
Paris
Rất
đức
mỡ
tàn
Xe
Hiền
ASEAN
điệp
trưa
cắp
Lần
Phật
lang
Giờ
United
Lee
Yến
lọc
Thể
bận
Lực
Nhóm
Thơ
lô
Lao
vĩ
đeo
02
ngạc
vội
khát
1000
chẽ
tảng
##19
Đạo
Chung
Triệu
bơi
Premier
ngụ
Microsoft
Bạch
2001
Vợ
Moyes
San
chuỗi
39
huynh
rũ
hẹp
Tín
ác
tha
Iraq
Lam
trôi
Thật
võ
bê
Crimea
lúa
cát
##êu
cài
Mùa
Thọ
Mình
thùng
Vi
Sản
sáu
ném
tủ
Kiều
muối
Bước
##nh
yết
top
ám
đam
tết
chiêu
chúa
TNHH
khuẩn
rào
chăn
trọn
loa
Canada
dạ
mổ
700
Thư
Kế
Động
Tên
Kiểm
THPT
Gầ
vẹn
Ánh
website
lạm
xoay
nở
thiệp
ngự
Obama
lít
Bồ
PV
đẻ
dược
sưu
03
Tối
hung
##es
vả
Sư
ảo
Nai
bùng
gan
Chưa
ái
hầm
tôm
hò
bảy
nhạy
vang
xách
Trà
khứ
rắn
leo
Hong
Phụ
sốc
đới
cốt
De
thuẫn
Đăng
quyến
MH
##ing
virus
Bất
chuột
Tuổi
##hiếu
muộn
Barcelona
75
nhẫn
55
bá
Chẳ
ngừa
rỡ
Putin
Đất
ức
sơn
Utd
TT
Địa
xỉ
chinh
mốc
Thay
Tuyên
Giáp
##en
mi
Airlines
lò
trộn
Diễm
TAND
Khách
Nhờ
ốc
Dướ
ưa
móc
Al
xạ
Phủ
chán
bông
cắm
ngọn
trà
hổ
42
Cha
HĐQT
Siêu
1999
bỏng
Ly
kem
nút
lũ
Nhìn
sợi
Inter
Ngôi
Video
mến
Tĩnh
##aceae
khoác
Phải
mày
Cát
mượn
thuần
Campuchia
mù
Bá
cẩn
gánh
phím
đỗ
bụi
lật
EU
ngắm
##370
Hãng
Tăng
Tiêu
nụ
65
vấ
Đề
nhũng
##km
cai
múa
mỏ
Thăng
Syria
rãi
##ếp
Nước
khống
chip
Truyền
trượt
bát
sáp
Washington
nhựa
nồng
Bé
đuôi
GD
soạn
Kong
Giới
Chứng
hôi
giãn
bút
hoi
##ha
Điển
Iran
nghiện
hằng
lậu
Israel
120
khéo
Top
euro
gã
lây
Sang
mây
##ed
mì
West
Hầu
cua
thợ
show
cong
Chuyện
Liga
##na
GB
vải
phu
BBC
48
trinh
Tham
Thịnh
thô
Kể
dịu
men
mũ
thoái
Vàng
hiển
ngợi
nướng
Rồi
bế
nề
nhạt
Kiến
Tôn
ngào
46
trừng
Quận
thự
cự
vành
Áo
lôi
Tương
mạo
huyền
im
bọc
Bố
thâm
##uân
Ví
Hán
Đan
Vị
hoan
rực
Rooney
Úc
lỏng
Thêm
LG
Đừng
ghép
Lãnh
Đi
voi
lợn
CĐV
ven
đùa
Tỉnh
nhầm
and
gối
Đêm
05
vitamin
TPHCM
mờ
dò
san
kiêm
cm
Bàn
khuyết
nấm
Phim
250
dã
tháp
MC
triệt
43
khơi
Argentina
dập
cúm
hỗn
44
Bến
Tỷ
mâu
##in
chênh
mồ
model
Trả
Đế
One
hot
Lịch
tọa
má
đầm
Tông
Cà
phe
tựa
lỡ
đắp
Quả
hang
Cá
Li
ngón
dồn
Thạch
đành
49
xả
Tiếng
Lạp
rà
Vũng
Thần
ân
41
khâu
bỗng
Chân
GTVT
dọn
vở
Đôi
hưu
Quỹ
PC
Nên
BR
khoáng
nhan
##ta
vươn
MV
rạng
nảy
Nghi
trọ
64
##an
củ
khe
mảng
Căn
Honda
Nhận
52
online
tráng
HTC
Mi
Phiên
ấp
khói
Michael
Lệ
56
chặng
hoãn
thắt
51
màng
##on
Bank
Trao
47
##10
lộn
rộn
buýt
liều
lùi
van
Sân
1990
thoáng
Nhung
dội
Vừa
Wenger
Bích
Cẩm
Thánh
Viên
Park
dĩ
Pro
85
chai
Sử
Liêm
hiếp
đói
thoảng
đớn
Cậu
Chia
dốc
TTXVN
Hiến
lấn
mọc
lăng
Nghiên
ơi
nát
##hắc
In
Mục
Cảm
Sông
##man
##23
tím
Đúng
Đạt
cưỡng
cóc
El
rủ
thầm
dối
cay
khiếu
Phía
Oscar
00
đồi
Cập
lứa
kiều
54
ngơi
Dịch
cống
quái
ròng
Da
NHNN
đáy
900
mẻ
tiệm
tuyết
Tottenham
xưởng
móng
chăng
FPT
Đàm
xi
981
##ne
Quá
Phóng
ho
Tác
Olympic
vuông
phà
long
đụ
Kiev
hụt
Juventus
lõi
HNX
gìn
Games
##al
Ta
nhắm
hận
Giấy
Vận
III
##hấy
1998
News
Ra
Trị
Cam
Nhơn
cáp
62
côn
Wi
chuộng
chém
Đáng
Everton
hãi
Bây
Tuyết
Vấn
tước
thổi
phổi
khôi
lấp
hạm
al
dở
mộng
lui
laptop
Đơn
Thạnh
cụm
53
chép
phun
thánh
cước
dạo
Ngãi
chê
Mức
Phượng
Vua
mười
99
điên
gián
set
ngõ
đứt
bấm
cúng
Cty
hở
nhí
nghiêng
2017
vướng
Manchester
bội
ong
ngạch
trùm
hố
Tri
Nhiệt
mầm
##son
Băng
Mau
May
iPad
95
trội
Thân
lùng
bắp
quã
Munich
NH
nếp
Tháp
xà
Le
##kg
##la
Nhạc
manh
ngột
taxi
mụn
2018
tẩy
tour
Paul
sướng
Cựu
Vy
09
dâng
quét
Thiện
##is
Ngọ
Co
Huệ
hước
củng
dưa
Ukraina
rung
hi
hiền
59
##45
lồng
Fi
Bỉ
gũi
Tuần
HĐXX
Hay
ớt
lăn
tống
57
1997
thọ
ghen
Cứ
Nghe
Dầu
##GB
Lạc
gioi
72
nhì
Đàn
hòn
Độc
rể
##da
Chợ
rạp
mặn
nâu
58
Diego
cuồng
phiền
tồi
VFF
California
tam
Xuấ
gạch
ngoan
FA
lưỡng
Old
VTV
##le
##ly
##ton
Khang
Chà
thằng
Huyện
heo
Quyền
CSGT
hoại
vú
Mà
rồng
Cương
tần
##rắc
##ết
Lập
##co
xô
bì
Mẫu
ham
sụt
Tô
hà
cúp
cậy
đệ
lặn
xông
Chồng
63
Alex
Vòng
GDP
James
Yêu
son
mò
Tokyo
tia
Chuyên
Chúc
man
phanh
trâu
Quỷ
ruộng
Su
Sức
bơm
gãy
Trúc
oan
cạn
hiếu
khép
Màn
##mm
léo
##00
sương
vân
Bảng
RAM
nồi
Lạt
Môi
eo
sụp
Mua
Euro
##no
Mở
đòn
lót
lũy
mèo
lặp
Mexico
Bức
66
chẩn
Air
Khắc
Lục
đôla
ốm
Quán
lưỡi
Roma
lắc
Dùng
gắt
sập
PSG
1996
xám
##ma
Hiệu
dũng
Thừa
Uyên
Grand
tám
rét
hoành
06
Myanmar
BV
dán
Intel
no
Pa
dãy
VĐV
thấu
bể
1995
tiễn
gay
Kỹ
Cerambyc
thấm
kiềm
Me
dại
1994
dệt
lân
thạch
##ấp
đắc
83
Âm
khôn
Nadal
gục
bẩn
Ho
Lời
84
vóc
Federer
Xuyên
BĐS
măng
Costa
mịn
Bi
Loại
dải
67
Villa
xích
cởi
úy
buông
61
đúc
Times
Cung
mỉ
1992
trăng
nha
ngọc
hoài
Khởi
SEA
Trafford
Cai
nhường
St
Dòng
Niên
kép
##el
xao
tụng
68
suối
thềm
sex
nghịch
file
Chúa
showbiz
vạn
Quyên
bồ
thủng
đằng
##ine
nôn
Khanh
Serie
Phùng
luồng
Nguyệt
Viễn
IS
Kiếm
Dortmund
trân
##15
##ka
Lo
gác
xá
2020
Sun
Tìm
phế
1993
1991
chôn
email
Khối
thưa
##ko
nạp
Email
kẹt
Cúc
ngâm
nhở
Viettel
châm
Bangkok
lam
nã
khái
CĐ
GS
kiệt
##land
nàn
Trời
Toyota
07
##se
quyển
tò
76
chửi
Suarez
tê
lướt
hái
nhậu
Idol
Cặp
Trắng
ghét
Boeing
##te
Hollywood
cốc
mắm
chả
Mark
chật
Pakistan
Bóng
phơi
Gửi
##ic
HP
Chất
Bale
mồi
Mông
Zealand
To
khao
Maria
ồn
Ăn
Hiển
Star
Ka
Tinh
vỉ
vọt
##ra
giò
Chắc
lát
##ri
Tạ
Min
Đánh
đắng
đệm
đính
Pha
##to
Điền
thám
1980
Khai
vã
rẽ
1982
chanh
bong
khoai
Moscow
nhặt
Bạc
Biết
lội
vịt
Oanh
Mercedes
Triển
bộc
Viết
vặt
láng
##20
lê
Khả
vạch
Cúp
rỉ
Trưng
thắn
Diệu
nương
Lượng
giọt
Cây
Chú
Go
71
tuệ
Nơi
Ham
lau
thiêng
77
##ập
thèm
gom
Persie
Tay
Đồ
Tom
Liêu
VOV
##ya
Los
130
Ancelotti
Ji
nứt
Môn
FDI
Th
##ro
gt
George
69
##ẫu
BTC
IV
CEO
axit
ngần
74
đắm
ôn
thỉnh
đắn
##50
xì
Cảng
dừa
khoăn
vịnh
SJC
Mạch
Ga
Luân
dời
88
phẳng
soi
1975
lột
xơ
Vùng
350
Cố
vớt
##gược
Ha
Mata
Young
HC
Hyun
Hi
LCD
Trâm
mươi
Uy
nại
chuối
cắn
Thất
Tel
78
sườn
73
le
nhát
Cửu
ghé
lốp
##sa
rèn
Khải
##et
Twitter
Buổi
ngất
Italia
ào
Đậu
xưng
bón
Sacombank
Đắk
mùng
liveshow
Liệu
Miss
li
Suố
thạc
dẹp
băn
Vạn
ve
gai
Martin
ti
lề
Hướng
bar
nho
nhục
bo
USB
Duyên
nén
Mong
Robert
Muốn
110
NATO
đuối
Tứ
lường
facebook
Super
Daily
##li
mòn
79
BMW
Valencia
trễ
đạm
trán
Đống
180
##th
tùng
Jose
ao
đè
chọc
xắn
86
ngô
kẹo
Bo
gas
SHB
Game
xôi
tre
hàn
vứ
đặn
Phân
dong
##ata
Bách
khoái
SLNA
ngưng
Tu
##de
Sam
ướt
Đứ
Mộc
nốt
##re
kề
Afghanistan
##me
lơ
Bắ
nhăn
82
bàng
phiến
Sống
Xa
Chế
Lu
mộc
dỡ
Bird
golf
Lại
FIFA
khiếp
Ford
Bush
dặm
BS
tivi
Sáu
mail
Pháo
Chinh
Bảy
hét
sexy
Ngư
ranh
quát
Clip
Vẫn
rải
Jennifer
lanh
trơn
Đảo
Tống
Cháu
giã
Tờ
MB
81
ráp
##at
Gò
radar
Tai
Thí
khoang
chè
ùn
1988
##di
râu
Neymar
Tới
Thầy
sành
Vietinbank
giềng
bú
##ệt
còi
chéo
nắp
giặt
Cửa
Quách
DVD
Quyến
xót
Saint
girl
Tim
Giữa
êm
lở
Thẩm
chay
Mobile
Website
viet
nọ
Phổ
nghiệt
đống
luân
túng
dỗ
Hân
Giống
Kỷ
Flappy
am
Kông
Ki
160
Thức
##cm
pixel
đọng
nhọn
điêu
##ca
Seoul
bôi
Jong
iOS
vĩnh
Giáng
Newcastle
scandal
##os
nới
tóm
Đời
1989
bẫy
87
Gaal
nạ
me
gam
se
Sen
te
Bao
HAGL
thịnh
1970
Nhã
Lão
Sunderland
rộ
##ắp
LED
dai
Táo
mini
##ar
vòi
sen
##do
Sỹ
From
Kiệt
Ben
Giai
xoắn
ounce
Tre
Nỗ
nhược
hao
Beckham
96
98
ná
hí
ván
tí
âu
giang
Camp
cồn
Victoria
sim
triết
Online
##ner
quạt
Món
Trì
Vật
HIV
Vn
tị
Quế
##ensis
Vietcombank
Djokovic
Chào
internet
mía
Ferguson
92
len
Chấn
hưng
SH
89
Cuba
##21
Nạn
rụng
1945
đoan
Trăng
##st
CD
Toán
Ni
chuông
dặn
sếp
đùi
Phone
Lumia
sạc
điền
bóp
mí
Model
đán
lánh
phì
TQ
xen
diệu
oxy
Noctu
No
sò
thản
bồn
nhộn
ngỡ
Kẻ
rệt
đạc
Sóc
khuất
cành
Red
Mac
tặc
Mr
thon
xào
Louis
đếm
Hoạt
Vịnh
mo
tụt
rã
chén
tao
TCN
1986
viền
Màu
Ar
dồi
Khác
ráo
PGS
Big
Scotland
Lăng
rao
nhện
Vài
##ni
chui
xôn
mắng
VND
hoạn
chìa
ngẫ
AC
ủi
Sách
Bridge
VTC
sẹo
Valentine
Dạ
##ây
Tranh
EVN
gấu
Palestine
Vô
cò
Henry
Cận
bực
Thục
##ba
Quần
Từng
Xanh
Đang
hãm
Ứng
tựu
##ler
lung
chì
Luis
Bầu
Can
Lạng
khiêm
##ry
tỏi
Re
Sir
Guardiola
You
protein
mập
tạt
Bánh
lẫy
súc
khía
Gió
chen
cỗ
Peter
xuôi
HN
đực
Giọ
##ke
##ắt
trắc
THCS
Torres
Thomas
Cú
mông
Daniel
nô
Cánh
for
##12
Black
Rõ
Sent
xoa
William
gõ
140
Ireland
1960
Bốn
sỹ
BIDV
viếng
chốn
dép
Trạch
Phố
họng
cám
cừu
gầy
Khê
nhã
ATM
chưng
Xé
lận
gậy
Angeles
Jones
tú
Khám
xé
nang
Aston
Harry
Group
Justin
xát
dạn
nhị
Mo
chậu
thìa
Chọn
Vệ
cớ
táng
Trấn
Taylor
Bán
Nhưỡng
suý
Trở
Khoản
thiêu
bùn
lộc
Tần
kì
bìa
Than
cháo
##ur
út
xăm
run
vắc
sừng
VKS
gót
Ân
gạt
Năng
tấu
CH
cọ
rớt
##ley
Ereb
Khó
nhôm
Williams
Xperia
Diệp
CTCP
Nhuận
Lộ
HOSE
Mạc
ngây
đinh
93
Nàng
rong
Vladimir
khốc
Ngành
mốt
Biểu
Tướng
Nou
container
Wall
óc
Kính
##ul
##ầm
nuối
Dược
UEFA
kiêng
xí
Note
quoc
uốn
kỵ
chiên
91
Giggs
on
1954
Kon
mạ
rò
1985
chợt
vỗ
mau
rốt
vu
Gerrard
Lang
##ana
ngỏ
kíp
CA
nản
Hàm
nhức
125
Ít
##40
cuộn
dang
Phù
Tạo
lì
Men
cưng
##za
ng
rách
Love
Kha
MP
ngoạn
nuốt
1987
quầy
##lin
Ferrari
Gi
bún
dưng
HS
teen
đun
##ter
vấp
##ymenoptera
Vinalines
Bill
Đọc
##or
FC
Pep
bách
Fulham
##ea
hăng
nan
Miền
CN
chiêm
Vườn
Thuế
GHz
Tùy
##ếm
##ov
lộng
gầm
1984
Tuyến
Đỏ
pop
Juan
Silva
Khương
tát
cọc
giếng
Tám
việt
rổ
Rịa
dẻo
Venezuela
khuya
Gặ
rock
choáng
##ce
neo
lách
Steve
Chile
tràng
luộc
777
Bã
bóc
##ja
Bang
450
bư
Colombia
sét
##ắc
CNN
hả
Nguyen
CNTT
gen
Canon
Tiết
Cấp
ki
Lữ
thắp
Hoặc
sưng
mãnh
lụa
megapixel
Đen
Pu
Hot
##ấm
né
Mười
Ký
Son
Soo
Bưu
Hè
97
series
đê
##ii
trêu
xẻ
##as
Mail
gi
mượt
GL
bẩm
hạch
1979
##14
##ie
Vốn
2019
tăm
bừng
quỷ
BlackBerry
Chùa
VNPT
phô
lũng
Giảm
##ver
lụt
ướp
hé
##BA
ren
gu
Làng
dào
na
xài
NSƯT
Phụng
King
QĐ
ru
bã
lén
Bitcoin
xay
kệ
ni
Kuala
cấy
##ẩy
quật
khỏa
xoáy
MTV
Mường
Eto
háo
Core
Trực
##den
##ella
ri
bèn
Dư
vờ
Be
Se
dè
##ek
toan
Festival
nguyệt
nhiễu
Hungary
Ngũ
Terry
re
Nà
Ước
Rio
kẽ
edu
##it
LHQ
##pa
rạn
Hiểu
vách
tấp
TTCK
Thuốc
Han
Open
nhỉ
Tuyển
Richard
Berlin
Trạm
Cole
##ki
đấm
Cư
visa
bơ
tơ
##bo
Lumpur
chèo
Chuẩn
be
Benzema
bẻ
Angela
##mi
TPP
Tưởng
Trân
vá
báu
đúp
mìn
vác
Full
1983
Huân
170
chớp
Ko
MobiFone
Thử
CSĐT
diễu
Hạt
360
Hào
Frank
##ga
Điệp
rưỡi
HĐND
1981
card
nhung
Đá
xướng
Xu
Si
quấy
giòn
Sky
sọ
Po
Viet
đũa
nhái
Jackson
##sen
Đôn
Napoli
Dinh
ghê
đục
Mô
vắt
khỉ
Khôi
##oc
Càng
##id
Mối
1950
##ina
lu
nộ
Thích
Mar
Đoạn
chót
CT
Wales
Johnson
Lenovo
rước
khánh
nhịn
canxi
Tp
Album
Ryan
nhuộm
Lâu
Chris
hốt
Xung
Lệnh
International
Donetsk
Mini
Binh
liêng
tạ
##go
1974
kìm
đèo
Mờ
##ge
##ji
thoa
bứ
Kiểu
gò
cu
Ramos
hức
Jordan
tà
Jin
94
Sport
Brasil
phàn
tạng
lữ
ngậm
Sevilla
Hazard
Pellegrini
NĐ
kiêu
dê
chọi
rêu
Post
thày
ngửa
Bar
khan
rùa
mác
ex
Bái
Nằm
VKSND
khử
Hường
Trình
trặc
Cristiano
gàng
Xử
chùm
Đổ
Southampton
quấn
lọ
mâm
Chiêu
Trò
BKS
Del
Lớn
Giả
hông
xảo
Dell
Charles
quyên
lừng
đả
Hắn
Kate
gừng
Hỏa
Per
chảo
tablet
##pe
Đệ
tem
up
ngặt
hổng
Jo
Ro
Tốt
AS
formula
220
ngứa
gốm
Bay
Yingluck
115
Chố
đan
##ze
##der
Ti
thề
cp
1972
##lo
DNNN
vuốt
Nhị
Green
phao
Stamford
Don
ạt
CR
Khuê
##mo
PM
Côn
##si
Chăm
Dàn
Mạng
ngươi
Vina
Va
quỳ
vs
hit
##ron
Toure
##ti
doc
Đám
gật
Sắc
si
kè
China
tản
lờ
Shin
##osa
Rập
QL
AFC
hoá
Stoke
Monaco
Barack
mài
đẫm
##VN
Acer
Ja
1978
gặt
ngu
Xương
Nay
Home
nguội
Niềm
trăn
hẻm
von
cúi
Nigeria
muôn
Nghiệp
Music
Gold
nòng
Voice
Dĩ
##be
Lady
Murray
nức
##22
un
bọt
Land
##ers
ODA
cược
Vai
nám
University
cẩu
XP
Vẻ
##ol
Nick
phở
Bundesliga
Saigon
rễ
bén
robot
Alonso
nấy
##sil
Gà
Eximbank
sưa
Góc
Yahoo
Or
##ion
nể
hệt
1976
All
Adam
Thưa
Jean
Hotline
Lá
ấu
Audi
Plus
Doãn
##ell
240
Sung
Simeone
Joe
keo
xê
Tour
gân
Đằng
stress
Blue
Thịt
Spa
Lân
rạch
đu
ếch
Ái
cuoi
chững
Thạc
Cuốn
1973
nhấ
ngả
Tào
##ev
nhủ
dông
Gu
Jack
SSI
ngàng
##gen
Arctiinae
bạt
Yanukovych
Asus
Yu
ưng
Vinamilk
massage
Mu
Mario
Kho
miện
Camera
Núi
Đắc
ngài
nhọc
Fabregas
vo
laser
thòi
phẫ
vạ
nhuyễn
Bỏ
Media
Nhớ
Carlos
Tốc
##tra
Lĩnh
1968
Palace
sỏi
Phục
He
liễu
##ian
tua
##ica
xít
##ster
Mang
##17
##one
Bernabeu
Show
flash
Am
Tràng
Cu
320
Vấp
nghênh
Motorola
ngán
Gương
ngạt
Bát
American
lượn
Serbia
750
##ừng
rảnh
lốc
sờ
Casillas
Nhu
Trải
Bờ
dằn
##tus
Yamaha
qui
Bin
lầu
vãn
ầm
VietinBank
##sk
##ber
South
nón
tr
logo
bới
toi
break
Ri
Dong
Thú
nến
KH
Martino
giục
Tầng
##am
##su
phác
Ưu
Las
Jung
nêm
Mê
WTO
##ad
##chi
rỗi
bệ
lẩ
##óc
chải
trói
Ne
USS
Xác
##don
##11
Jolie
nóc
##ếu
khốn
Thôi
Phu
gene
Zing
lười
cày
Angelina
##zi
550
Tr
Max
Smith
KCN
búp
is
siết
TH
Bluetooth
đao
heroin
Khán
Lampard
Smart
En
##ny
ngắt
Street
Anna
Rồng
Tiệp
bồng
1977
thuở
Cầm
thối
##wa
bin
cào
Hảo
Đền
Brom
Ghi
##so
##din
Áp
##sh
tẩu
##va
##ty
Huấn
tui
White
France
##tin
Thiệu
Crystal
Abe
Tan
tưới
khong
cối
Cán
105
ray
Rafael
Masters
nghẹn
Nghiêm
pho
qu
Kerry
tớ
Thao
Plaza
Subject
miên
Tế
búa
Texas
rẫy
ngục
Lazio
thốt
Chấp
off
Panasonic
nhóc
Blues
Tịnh
Rock
nghẽn
tro
CTCK
Rodgers
khinh
Mây
chệc
Ch
Pan
##ts
##MP
BHXH
thà
Dấu
##lan
vượng
Tab
sấu
##mer
nguoi
day
sọc
##ham
##com
kẹp
amp
muỗng
Hung
Alexander
chích
my
##ấu
##ml
Clinton
##aria
Lopez
Cực
ní
Sydney
##ir
nhồi
1965
Xavi
ĐKVĐ
##ong
Chuyển
##vi
Fan
xáo
TMCP
Club
##ense
ruồi
giơ
thục
Life
##ck
karaoke
you
Hull
ISO
Sergio
##io
quỵ
mép
vùi
##rus
que
Aguero
chuộc
đốm
Uống
khoát
đọ
Ali
hủ
Đáp
Mắt
Brown
Play
Nhiệm
Ngụy
lún
thạo
##ola
chuồng
iPod
Mật
Hussein
đò
Brad
##fa
##ura
Libya
trổ
thethao
Mất
lú
phai
Buôn
chánh
ngơ
môtô
chat
Tóc
Tràm
ngòi
yếm
Carlo
Lầu
##hép
##ula
Uruguay
sâm
##ium
Bông
##24
Diện
Gala
Won
bưởi
Vượng
vụn
##ation
thâu
Sochi
hoán
Dubai
mải
luat
1969
Pin
SIM
Czech
thắm
NĐT
lựu
Emirates
ngoặt
AM
Andy
##zo
##rin
Đồn
Khí
lỵ
Croatia
Store
marketing
Ya
Peru
sub
##men
1900
230
chạp
##op
Norwich
Vu
bạ
Liễu
Ozil
Swansea
Giroud
hóc
hấu
Hye
Toshiba
gội
xoài
diều
Tum
650
DJ
sấy
Củ
NN
##ey
Tích
##nes
Ver
bikini
Megapixel
Amazon
Fernando
##dy
Telegraph
roi
##18
rầ
lay
Disney
méo
Dần
Auto
Nổi
Hỗ
nhào
Ibrahimovic
Jun
nếm
##po
Bloomberg
It
##un
##lu
##han
rụi
ngó
Lãi
Nu
côi
##il
giằng
Robben
1967
Shi
ASIAD
##rập
xịt
cưa
bênh
blog
Nguy
Car
vôi
Time
##ris
1964
Cử
##ặng
Phái
VAMC
xước
Jang
Kevin
Mùi
##ậm
On
Sea
Đương
Trụ
Tuệ
##ot
##ốc
GT
xua
Hòn
Sewol
dạt
##25
Nhằ
vung
128
cẩm
##ve
TCTD
Sai
cộ
##gieo
Cải
Cannes
Europa
YouTube
1930
Victor
MSN
Moskva
1962
Balotelli
Next
đàng
en
Kích
lóc
trèo
Hart
Schalke
##tes
##mar
Florida
##ceae
##iana
Sương
##100
Touch
khiết
AN
Matxcơva
Win
1971
Vidic
del
##est
thung
Lò
mủ
##les
Pop
##jo
1966
Ung
toa
ngóng
1963
Rome
##TV
Agribank
tốp
Cang
ró
Ngà
Getty
váng
1958
mít
Phản
Đoan
Mary
Trư
QH
Lớp
##age
nh
Web
280
trù
Garcia
Lắk
Arena
Ferdinand
Gã
Wayne
Nobel
##ard
Marc
##tel
Porto
Geneva
103
College
Power
Steven
##USD
##ss
Live
##16
America
IELTS
nude
thính
We
Lamborghini
loãng
Nho
Ericsson
Juve
Wigan
Nụ
Scott
chói
Vui
IMF
##ino
Drogba
Thuật
Fed
Link
Ngồ
##300
dì
##tor
Mẫn
##yl
lửng
480
Dườ
Wang
1940
Santa
ỏi
han
cõi
##ville
Nm
Pe
lí
Day
bịt
Pedro
Snapdragon
Serena
Thy
Tho
chốc
Dị
##500
kh
Dao
nhốt
out
Phil
oz
Hổ
##ist
Sha
lụy
vòm
ngoai
Tuân
khắ
CPI
Francisco
Para
Tố
Mart
sả
Nghề
cằm
Ng
noi
Sữa
nhai
Tony
Micro
Rau
Pacific
##sky
Ngữ
răn
AIDS
zoom
DC
lả
hacker
NXB
Roberto
thốn
Christian
đốn
Út
##ita
Tang
Hết
101
kiếp
Xá
##tu
Hoan
cúc
úp
Forbes
Iniesta
Un
Hỏi
108
1942
sạ
toá
thê
##ker
muỗi
Anfield
uất
loét
NV
Đư
Andrea
Nikon
NASA
Phường
té
1944
hen
Fiorentina
rô
Jan
NSND
Đặt
Ốc
##hập
phồng
OS
##cho
khoắn
Royce
giặc
Mậu
nhang
Dan
Tiger
##van
ngẩn
Simon
trệ
Asia
Is
##eo
Pi
ngà
derby
Kh
ngụy
carbon
Elizabeth
chước
Cơn
trá
style
1920
tắn
Ju
bit
Sturridge
##ốp
##13
Yang
Awards
Jessica
Sar
1946
FLC
##ão
##cy
IBM
##26
Sch
Luận
Thì
Office
HQ
Khuyến
Kelly
nần
cau
cafe
guitar
720
thỏ
Royal
Phá
Bu
Il
##san
Woo
Entertainment
Mãi
ẩu
Nghĩ
Canh
##ate
Bulgaria
micro
Val
##ff
HAG
Kaka
Fox
rập
BXH
US
Tra
lầy
102
1956
Lô
cưỡi
1959
xíu
nghiền
1953
Roger
bus
##ada
suôn
Thai
Rolls
365
Fu
Chan
Che
miệ
thêu
Thoại
Bữ
Cech
##ok
quất
ngấm
Chức
Ku
Thỏa
VIP
##ens
DL
Mũi
##ửa
nành
##ier
hon
cụt
Đẹp
##con
Youtube
sỡ
Neo
Britney
Đấy
go
xó
##line
Techcombank
##kin
bụ
##min
sưởi
ph
điềm
cáu
Alves
Ashley
Slam
##ran
Trichopter
quây
##cha
nga
##ynh
Global
VNM
yến
reo
As
Bọn
kình
##ling
LHP
Kroos
vẫ
văcxin
Yaya
phật
dau
VI
Trãi
##35
Hứa
lù
Pre
nghẹt
##án
niệu
Chơi
##ten
##ova
Lư
##ger
Noel
Biệt
Chữ
biếu
Bàng
tẩ
Hyundai
CSB
casino
##od
Manila
##55
cuống
chập
nhờn
collagen
Khá
Hee
##tan
bầy
huyệt
##ru
Leo
vét
Pitt
Qaeda
135
War
năn
Hawaii
sô
LĐBĐ
##ure
Đam
lẩu
rỗng
239
bai
##che
Sociedad
play
Rêu
hãnh
lon
##ph
Ph
Giữ
PTNT
SP
quẩn
Ranh
##alis
Tuyền
Đau
khoanh
Họa
Sri
Xi
Factor
Giấ
##berg
Biến
Samuel
mAh
nách
XH
et
Khiêm
calo
210
Wimbledon
Ngưu
CO
lùn
Gruzia
Tạng
Geometridae
Sharapova
##book
Her
ngủi
##ene
Đóng
Alan
shop
##ena
tỉa
##daceae
PCCC
##net
đậy
Tượng
Vĩ
LS
##ut
chướng
Hamilton
pro
##ang
dầm
Láng
Cự
Ngã
nuoc
##ep
ETF
Chim
Toản
Kịch
SNSD
HCV
nỉ
SM
Khảo
tẻ
##tis
##ai
MT
nhả
Par
đôn
Ngài
miếu
Cứu
Leverkusen
Edward
trướng
chèn
Taliban
Luiz
Manuel
bỉ
Sergei
tuột
nhích
##ju
Séc
sảo
VCB
Ecuador
Center
bẹp
Lãng
nghĩnh
##ida
Zidane
Luôn
1941
Tề
Cor
mứt
mẩn
Trộ
xuồng
Thẻ
##uk
Baghdad
270
he
trailer
Karnataka
##em
ĐTQG
Benz
1961
rán
VAT
võng
Trác
App
##sin
##200
Mưa
Gates
penalty
lều
Đỉnh
nập
Petro
Ronaldinho
Thỉnh
##iz
đố
Cardiff
Instagram
##46
mix
mớ
gram
##odes
Catalan
##ment
Nexus
tuông
jeans
Boston
sầu
Kia
##able
##60
##lar
bầm
Chen
Gea
căm
Raul
xộn
##que
##per
gào
##uyên
Tức
##ee
mẫn
hất
vơ
##pi
REE
nguyền
Dream
##ak
Lên
Baby
nhét
showroom
gáy
##ite
gang
Thập
Garden
SD
Mike
yen
Lyon
phôi
Đăk
1943
bung
sặc
Sh
Ru
##600
ngùi
##up
190
Series
Kyo
##32
cạo
Carl
Vọng
113
quế
Fa
nhổ
1955
Col
der
##gi
Etihad
Bò
370
like
bừa
##our
##ria
##yan
Lỗ
tưng
SUV
Tạm
nạt
Petrolimex
st
1957
băm
TN
Ngôn
Robin
Bè
hoc
Cấu
Trailer
Sadda
Asian
Sanchez
UNESCO
kền
then
Suzuki
##nia
House
STB
Ngựa
VinaPhone
Antonio
##vin
thoi
sedan
IPO
Nền
Mộ
phông
##du
VH
moi
Davis
Villarreal
##era
CIA
Bia
McLaren
Tae
Toni
Tả
Qatar
Bull
Đợ
Miranda
gập
ten
mg
Ad
át
Hu
cholesterol
gọ
truất
##oides
dí
##we
vest
sur
gộp
rơm
tảo
##ường
Selena
teh
radio
Dzeko
Roy
##ho
Lavrov
Khmer
WB
kẽm
or
Ribery
Trại
Nâ
Chicago
PVX
TBN
live
Evra
Thụ
Sơ
Blu
Mor
For
Monte
Martinez
vaccine
BT
##ps
Express
hat
SV
Eva
xòe
vun
Diên
GPS
HA
ngốc
##bar
##ến
vặn
thun
Luyện
Giảng
Courtois
##au
Arsene
Sim
HSBC
GAS
Lạ
rậm
spa
Dragon
Gareth
Đốc
##ac
piano
FED
##by
trót
CK
Abu
##mon
quýt
Swift
Oezil
Ke
Giêng
húc
FBI
CPU
Benfica
Smartphone
sục
tụy
sào
Thuyền
Gary
chan
trĩ
Ah
Fire
Vỹ
XK
##lon
##MB
bu
##eri
##ow
Kênh
##thi
Nhàn
Cống
Viktor
Chạy
Ak
Eric
Will
Pique
Mèo
Lionel
Hill
DOC
Hal
nơ
Kar
Latin
Thuyết
Ze
Vincom
Vitamin
GM
gl
NTK
Pepe
nhúng
##ona
##ez
catwalk
Har
##gan
##sy
oán
##ếch
thiền
rù
Chiểu
xỉu
##ini
hấn
Gar
##hi
Hạn
Hang
Mao
XI
kỉ
Joseph
CHDCND
thẳm
diesel
Lexus
Ken
kĩ
850
Miley
Rose
##rượt
nung
VIC
Đấu
ABC
cội
Ty
##ec
Lỗi
104
Mega
##bu
Lối
Sàn
Ngộ
##ban
Tower
Ivanovic
Linux
##ượt
Capital
solo
Ap
##ide
Tevez
Bilbao
RIA
1939
1947
acid
##ney
Andrew
tạc
##wi
ml
Ram
##ci
nhàm
Thới
##tha
loang
Porsche
PS
chát
Tầm
North
##48
phen
nhoáng
##ther
luyến
Suy
Miami
VCK
gồ
nem
##gu
mồm
két
Khỏe
Đầm
Lim
Cháy
Sol
ngời
##sta
vỏn
##wan
Business
th
giỏ
Gomez
IP
Matt
HTV
##fi
chà
Tỵ
mồng
găng
rốn
Marie
##bi
Cap
xốp
##ros
concept
Metro
##GHz
##shi
##ius
Gaga
##ay
boy
Nhiên
Bel
giáng
đù
Ed
BHYT
##sch
Nhan
xù
thiếp
sum
##je
Mirror
Lái
bẩy
Đột
##tic
tủy
ITA
She
chớ
260
Good
bói
106
Photo
##tt
link
súp
Tội
Laden
sáo
ngẫm
nao
chocolate
Giế
chuồn
kí
TDTT
hắt
rú
Hộ
1949
##ef
Patrick
ch
##yo
112
Nathan
hớ
##sia
##cus
##05
##field
biếng
Loa
ADN
##atus
##om
Tran
nhằn
##ku
Maritime
gớm
Yi
ĐTDĐ
Tao
giun
##cia
ghe
Mekong
sohoa
##72
quậy
##ach
Kop
Liệt
##dan
Ana
141
GP
##mus
##ich
Rẫy
Marco
duoc
chư
National
Jobs
Sóng
sỉ
Nissan
Far
Hitler
##kov
đẽ
##ser
củi
Khan
##ou
vơi
Hạng
McDonald
Thiền
sẫm
##bin
Jay
Lin
##tum
Sợ
CMND
thừng
Cấm
##pro
Billboard
pham
Parma
Project
##ẩn
muội
Guardian
Mc
##ud
Fashion
Nhược
cabin
Xí
Novosti
##onia
Rạng
Béo
tru
Motor
##vo
Mái
Romania
doi
1936
quyện
Kremlin
Nepal
##lis
##my
trơ
with
nhàn
Mel
##ora
WHO
##700
107
Belarus
ion
Gun
Maradona
##ọc
Andre
khâ
Melbourne
Phí
hormone
hoay
Moon
Lòng
Virginia
##tion
NHTM
sảng
##ua
##nd
chài
by
Quay
sói
School
điếu
##ford
Ge
Espanyol
Lewis
Hun
##400
thửa
Cambridge
Hôn
##kan
Sát
nu
Lawrence
Potter
##CB
nạo
330
##ven
Thaksin
Noo
GĐ
##pur
175
há
Wawrinka
phất
sộ
##63
Váy
Vol
status
nện
Dẫn
##71
ách
Cạnh
Angel
Xinhua
sủa
Up
1951
gmail
ke
##52
Stephen
Ye
Kazakhstan
Dryopteri
Tata
Albert
nhẹn
Howard
chưởng
117
##NG
thét
Truy
Bê
Allen
download
##bank
mot
Sharp
##ub
Chang
Xbox
Maya
Town
##ase
Blackburn
Fe
Triết
111
org
Cook
rồ
Ultra
rát
##gia
##ans
##800
gặ
Joon
TB
Puyol
khẽ
Lự
Galatasaray
Karl
Hộp
PR
chằng
Nasri
##qui
Java
##ah
Quê
##atum
LĐ
Podolski
Thuột
Làn
Bieber
Benitez
Malaga
##ano
##ren
Kenya
Mall
ll
Lucas
khang
Best
blue
HDMI
##ale
xịn
Les
##ifolia
Calisto
##cc
mênh
Wilson
độn
1938
mui
Net
##mann
chừ
##ab
Donald
trau
##90
sà
Bù
Januzaj
Ea
Cốc
rang
Bra
Harvard
gắm
999
##val
tít
1952
##len
mó
Ajax
Getafe
##cal
mẹo
Charlie
Ber
AT
Khúc
VPF
phap
ĐHCĐ
tấc
Tái
##ae
##tia
Qualcomm
Mazda
Cỏ
pa
mẩu
Santos
bèo
Er
bùa
bat
mu
Airbus
HTX
Mal
Ivan
##TP
chao
Laptop
Thằng
mè
hờ
dance
Anderson
Johnny
##ara
##opsis
Osasuna
sảnh
Miên
tót
CS
Anne
560
Chờ
Bor
SA
##res
##úp
Trump
Bính
Sagna
Thìn
giông
Moore
sắn
ló
Thưởng
##wood
##fe
AFF
Tý
Bur
ĐBSCL
Gái
khoét
quặng
##eta
1080
nháy
cac
vần
nhũ
hán
Est
gượ
Birmingham
Đổng
kWh
171
Ray
per
phớt
##sha
##ish
Qu
riết
Valdes
Je
Secret
BLĐ
Alpha
##rs
Thiêm
Seung
##ew
1948
Móng
##ato
##ẫy
##oi
Hát
Gói
Đèn
Thỏ
òa
BB
tien
Kem
Betis
##har
MiG
Pat
NLĐ
512
Cameron
vao
Pleiku
Tóm
Mơ
Hugo
Cazorla
Lincoln
dan
Cám
Houston
Standard
Arab
BVH
PNJ
##900
dứa
Choi
##way
Bal
Pra
Rạc
Mer
##the
hờn
Images
chổi
mách
Alba
Truyện
nhú
it
TTg
trick
Latinh
##ốt
Hùm
bời
Roland
nhat
giầy
KT
ATP
Bỗ
Lindsay
single
Cờ
Art
Ocean
##ric
##eb
Cnet
Bolton
line
Plasma
Grammy
trầy
Shah
Welbeck
Khung
General
Kang
123
Bom
##70
vụng
Shinawatra
Viêm
Eden
Ôtô
##rd
Vista
Ac
Lã
##rat
TIN
Udinese
Bob
Thoa
Night
Type
Quất
Hanoi
ôxy
hiên
290
Sara
225
Miếu
Ve
dãi
Nicole
109
Yong
Thiến
Ramsey
rợn
Polypodi
lút
Yoo
trỗ
Kan
ngai
chò
##ome
Eu
##illa
Wave
Petr
##iện
nhô
##he
##ix
2030
Rodriguez
xiết
Cameroon
Đĩa
Ghana
Im
trợn
Perez
mobile
Philip
##fer
Ter
Roman
##POLL
Khẩu
nhảnh
ST
Danny
Trầm
Mancini
##ei
xoăn
Ny
##car
xỉn
Nicolas
xổ
Au
hăm
Deportivo
choàng
Ron
##az
Sterling
##ap
Kháng
kèn
##ct
Ara
Visa
hèn
ngạo
127
Pen
SMS
Shu
##ken
gở
Xích
vò
Giúp
CATP
##oma
Za
at
Vang
1937
kén
Gọi
##phone
nilon
nặc
sh
cover
Yoon
Stone
MacBook
Thà
Adrian
##pan
Laurent
bái
##dar
##hu
At
SS
Wei
Owen
mịt
Trùng
ID
tỳ
thong
##ice
Journal
ko
Shaw
Thiago
##ble
118
tuýp
Cướp
Vượ
rưng
ngừ
Girl
lõm
Jason
Dar
##ski
Free
Cal
PHẢ
##rình
Columbia
cấn
chắp
##ạp
giở
Đả
Thuần
##ting
thán
Great
Phantom
phụng
##ies
TW
##gar
Phối
Megachil
##IC
1914
Inc
##80
##ira
##burg
Ôn
Telecom
VNĐ
##CC
##zu
##kh
Thua
Card
lẻo
cửu
Nhì
resort
Hoằng
Fax
Túc
hoà
vắn
Queen
cù
Mont
Modric
ka
Chữa
##zy
Lôi
VIB
Phe
114
Slovakia
Oai
mả
##all
ngao
Hinh
DOJI
Bửu
Trợ
vớ
opera
RT
Mâu
950
Resort
NDT
Wu
vế
Amsterdam
630
##lia
Rossi
Miura
Vo
Nh
Quà
Thơm
Kagawa
##92
mương
hãn
##GS
Emma
##ib
##des
Rai
##olo
México
##iếc
Jen
Seedorf
Vegas
Ahmad
Bell
đú
132
as
Neuropter
MTTQ
##ala
Kara
dien
990
121
Luke
dột
HDBank
Sứ
Cavani
##Bank
Chó
##ll
Sports
Vingroup
Paulo
520
##sson
##97
VIDEO
Kpop
bịch
Enrique
Kompany
##cu
Tỉ
Cân
Tech
Hall
Lanka
SE
##ần
Nintendo
Sevastopol
Bentley
Vinashin
sảy
155
ngói
##41
##mb
124
tơi
logic
Mad
Mộng
Brian
##bal
Cù
Spears
Jakarta
##ari
##elli
Depplus
ngùng
soái
##del
Khóa
##ram
Baggio
Giàu
Uông
##bra
Gen
Dr
khét
Bre
145
Madonna
##ary
won
##47
lẫm
rìa
HỒI
Desire
tột
ngách
gán
NHM
CAND
Vinaconex
##gon
Girls
Coca
hanh
nhấc
KSND
Southern
Suk
Levante
Jae
cằn
Oh
HPG
Chamberlain
Fellaini
lồi
Leonardo
ben
Jon
Eun
tã
Abramovich
Frankfurt
##ns
##ani
Khiết
hop
Guinea
Digital
##01
##úc
##ys
Tháo
Tà
EC
VNA
Bổ
xiếc
hân
##tz
##oni
Ôi
Lừa
VP
xố
Trán
Carrick
Scholes
Càn
Yo
nắn
tennis
Shop
Đón
##ao
Ngọn
##64
lép
##tro
256
##ero
Yan
Sin
East
165
SGK
High
##ER
op
Jonathan
Edition
triền
Michel
Giàn
Brunei
AK
Woods
Khổng
pen
lố
LA
Pierre
##gr
##lic
menu
bon
##ất
còng
340
##tri
Flash
##ọa
Cáp
##ence
Panama
Yeon
anime
sệt
1912
Pirlo
Hilton
click
Chứ
##eus
dỏm
Perry
giấm
Vâng
Gian
chắt
Cong
116
##star
Schumacher
Vespa
Huawei
Cruz
PA
nguôi
dặt
##pha
server
ac
##icus
Tar
##tal
ngoãn
Illinois
dẫm
hoóc
vạt
Studio
room
IT
teo
Michelle
nhòa
mat
hươu
Pho
Bou
##ste
1935
Thúc
lạng
Dmitry
##67
Merkel
##ichi
Đâu
Morgan
visco
Br
Vaio
##nam
Szczesny
Baker
Hợi
Miller
##ft
rườ
Moto
test
##sor
Port
Cruise
Olympiakos
Road
##news
##nie
Sâm
##bia
au
Loire
Chư
##cer
Boy
##ik
Sanh
Marcelo
nai
Tehran
Torino
beta
380
Nét
Sina
ắc
##rum
Capello
Call
Tòng
kha
buốt
Out
vali
##AC
Nắng
Campbell
chần
##bit
dá
##yu
Thám
##hụp
1917
cent
Set
Marseille
Valladolid
giỗ
Alexis
First
thóc
Nắ
giă
Abbott
VII
DS
1918
##well
Tor
126
##lla
##xi
Sm
TX
AMG
il
##can
Dow
119
Gươm
122
Brendan
info
Phả
Vin
Evans
bùi
dìu
Gui
vảy
Duẩn
Novak
Rượu
yahoo
Anthony
kali
Gil
Cola
Medvedev
##ese
trớ
Palm
1929
Oxford
Cười
Saudi
Te
nham
cỏi
hẫng
Jim
Lẽ
##65
##OS
Nợ
Pseudo
lăm
Let
Bon
QN
Hiên
##uri
thuyên
##54
##nis
Khuôn
Răng
##ika
##ồng
trẻo
rầu
Friedrich
CPH
nhớt
Poly
sạp
##óp
APEC
Radio
Dưa
Ci
Hari
##ầy
440
Zhang
TGĐ
đấ
##br
yoga
Ẩn
Ger
##MA
thò
Ligue
USA
EXO
Giày
420
##let
Celta
##yn
Gear
##las
Loạ
XX
Chanel
khay
AloBacsi
Cat
Tận
1913
cặn
Vic
Hãn
Ros
Thắm
túm
143
phan
##TS
##ex
Wood
Neu
ky
##ật
ngượng
quă
rành
Hamburg
Tha
thoai
el
Ce
Matthew
cạp
MW
nhỉn
tren
138
Wa
Lăk
tì
Massachusetts
from
rãn
Delhi
Lính
End
Tôm
Bruno
People
Lành
Thang
Nuôi
Den
1932
##ring
Thiều
Prix
Astra
JTC
Tiêm
dấn
Iowa
Marketing
ngợm
##yama
Kra
640
##CA
Lisbon
Sarah
CB
##dia
##ant
TVB
Golden
##ậu
##ky
##ota
Cẩn
##port
nhĩ
Thác
Dơi
Trứng
mướn
Khâm
System
Ngắ
hằn
Vicente
Khe
Morning
Trù
Nano
##dal
##ương
##CO
TƯ
nôi
hú
Carolina
Assad
Venus
thớt
đong
nạc
Phở
Word
Chiêm
##cin
câm
Diamond
Mãn
Nhâm
Kerr
##ves
Sửu
River
quạ
hễ
##ue
##ane
xệ
Lửa
Walter
##NH
##ado
##mat
Rob
##ous
trọc
Camry
Ren
##DS
Rihanna
trầu
sạm
Got
bộn
##ón
Mou
Class
##zen
##ye
AMD
##ăng
trỏ
Phạ
rê
Huynh
##pin
Iceland
Fabio
Tảo
Abdul
Pic
Wilshere
nấc
Thung
##150
cẳ
Willian
Master
copy
Liu
hydro
080
Ngo
ngớ
##rr
Mão
1911
Crưm
yểm
Football
chạc
sùng
Georgia
nhún
##ette
Bali
1934
##èo
suông
BST
ngửi
133
Xăng
Sy
Warren
Buffon
phượng
feet
Vỏ
vãng
##ui
##ES
##dra
Julia
Rica
mút
TR
##AN
Sunday
##51
mụ
Mỏ
Xê
dế
sụn
Light
quai
Chuột
tanh
##bus
Dutch
phách
Palermo
nheo
Rain
Jane
FM
##bel
##hara
##gue
##cher
po
thặ
biếm
Kền
Quỳ
1931
HT
Explorer
TOEFL
level
Miễn
truong
Walker
Tung
chuốt
kèo
##ray
ar
Tro
##hn
HV
144
##ema
##ral
Bangladesh
Macedonia
Cahill
bô
Tomas
Malacca
bần
Hoành
Cher
nickname
kiệu
920
ft
Gabriel
Ấy
1919
Junior
SX
NK
152
1933
Island
Renault
Neville
##iya
ngải
tép
Pham
##aki
Ưng
thỏi
Gạo
##ama
##ras
##02
##FA
##ity
168
Chanh
buồm
##low
Bruce
Masan
Ross
Calderon
des
##ré
LĐLĐ
Isco
Matic
Championship
##vietnam
Skype
Cyrus
163
Catherine
Firefox
Tuất
UAE
Tắc
Trừ
1910
NS
Nani
##ển
chang
SBS
Ste
##SC
##rea
Seo
KLS
tậu
full
Sudan
make
Dệt
studio
Opera
##mp
hòm
##inus
fanpage
##ela
MI
##ello
Chín
đày
bưng
Jamie
Alpes
ton
khít
Bối
Gan
Ball
gỉ
##zer
pô
microSD
Garros
VGA
Congo
râm
##yi
Golf
Slavyansk
Bremen
hũ
Kids
##eu
ngan
cuốc
SARS
ne
búi
cap
thẹn
text
silicon
Kuwait
Schweinsteiger
Dễ
Javier
##28
Kitô
Diana
129
##EA
Castro
##hẳng
Vincent
##AM
quí
136
Lạnh
nom
Chevrolet
vừng
##ator
##rt
Dã
Bột
hùm
1916
bướu
Leon
##lam
Dữ
1800
##36
Mon
cạ
ải
Joo
##rit
xoang
Ae
Mitsubishi
Beta
1925
##tre
Lewandowski
Rover
Vettel
Kennedy
Central
xui
##inae
##TM
NQ
##long
ja
##99
##AS
MS
Education
mướt
##bon
úng
Pad
hổi
nano
Back
Gerard
CV
Hoang
##oon
hời
HDTV
##băng
ắp
Chrome
Portsmouth
1908
Mun
GSM
Style
dỗi
chù
390
Fair
Nan
##mel
Sharon
Fo
oanh
Armenia
##FC
Bad
vút
##ực
Zen
trệt
1924
dăm
##box
##tte
##af
Walcott
ATGT
Line
Sapa
lẹ
Francis
##ore
dẳng
##04
##IS
OLED
sá
##of
199
dẻ
Leicester
PCI
Sampdoria
Allianz
##out
MINH
Snowden
love
134
pe
##rie
##enko
café
Aaron
##AR
gắp
131
vén
sững
Amy
Chả
Nhấ
Des
##nar
##rk
Happy
##aya
Gaza
Shinz
vụt
Thảm
##fo
##nus
mỳ
Vé
Cói
##lip
mon
Chechnya
Senkaku
serie
Ngạn
giê
Già
##and
Jesus
Neuer
##320
DNA
##ộc
càn
##EC
Adriano
axít
##isa
##ett
Klopp
Thôn
Hotel
Mesut
Yemen
oai
##ent
Ab
Julian
FTA
gù
Box
Blanc
Book
##uma
##dis
##PS
##lat
Trai
xú
cốp
den
158
146
##250
Lahm
BĐBP
Team
Lotte
Baltic
Dark
##ock
Ferrer
##rio
giùm
Cy
Reus
Vigo
DPM
##king
Ex
Cooper
##lea
SSD
##ben
##ox
##NE
Pol
Bologna
lẳng
Giây
Blake
tễ
149
Phấn
310
Cer
1923
ngút
Aspleni
GPMB
Christopher
Brussels
Virus
chầu
##mont
nhõm
Wolf
3000
##dium
huỳnh
TNGT
##PA
Voi
##elle
phiệt
Phap
Optimus
Harper
##95
##42
DSLR
Petersburg
540
Hans
PT
##ED
kềnh
##ila
153
##DA
Lũng
1905
Falcao
430
Philips
Your
Cagliari
Mikhail
Katy
lằn
Huyết
PlayStation
nực
ampli
1928
ói
Nistelrooy
Beauty
Ur
Glass
hởi
##06
219
Dậu
that
##ago
##61
múi
nghén
Giác
##EN
Mandzukic
Uni
VPBank
God
Slim
Sải
##ST
DDR
Hol
sần
PVS
##AD
Linyphi
LTE
Trông
Buồn
bậy
##yr
Carter
##bol
##pus
Os
Alice
Totti
nín
##qu
1915
poly
##mina
Universe
Showroom
VCG
##ét
lươn
Key
Yonhap
Ramires
Xứ
PVN
##ung
Week
xỏ
sùi
##dong
quặc
##53
##ive
##tch
ADB
##tidae
gạ
Captain
Thiệp
sam
ngáy
tiếu
Aspire
##82
Ngươ
View
mầu
##58
Becks
Tủ
trọt
Rosicky
BOT
Chip
##chin
##ền
##pes
##met
Stuttgart
iTunes
mào
##ico
rèm
British
gr
Pele
139
137
##dor
SCIC
ngợp
Say
##HD
Com
##gin
Berlusconi
Điếu
##pt
##nan
Kạn
154
##226
XIII
Mascherano
Rùa
Ama
460
##êng
Ay
ANH
loan
Irina
vầy
156
chày
570
MHz
Now
##09
1927
Az
Kai
SL
Sebastian
##ks
Grant
rằm
loi
sán
Nhanh
##ness
Hồn
Sho
Negredo
Bond
##lay
##PC
Thelypteri
530
Qui
##phi
##ile
rôn
bềnh
##red
Wan
êkíp
mận
Health
lìa
MASK
short
nấp
Warner
Click
Chù
nick
chồn
Gazprom
đờn
IPS
Rick
Dani
Laser
Hillary
Haiti
Pri
Chun
Earth
Leeds
Nương
PG
227
176
vênh
vía
##ông
Thâm
đằ
FDA
State
Ten
##78
Rosa
náu
MBA
##oC
1922
##RA
Iron
Genoa
all
rơ
##gy
code
Muller
Riedl
Yoshi
##ston
BD
Like
Cape
diva
Km
Hố
SVĐ
By
Siro
oi
##ight
nệ
185
Watson
Khủ
##79
Bếp
##86
##tica
ngổn
xo
##sing
##350
Bolivia
Little
GTGT
##AT
Krông
Find
##HS
Audio
cup
Sporting
ắt
##qua
Yoga
##43
Nấm
Tưng
CC
yeu
Chăn
Adams
Najib
Corp
Ian
sê
dùi
knock
Speed
nặn
Alaska
Blair
580
##ĐT
Án
##anus
183
Fletcher
Koscielny
pu
Sex
HSG
bặm
##tech
##mos
Sound
Mertesacker
TTTM
##MS
Vành
phượt
CES
Gấu
nhá
##anda
óng
rít
##link
Sal
Pico
Jeff
Surface
Chievo
Hưởng
##lac
Oliver
România
Volkswagen
Mah
##ali
##uyển
Đán
lấ
##75
Gor
##anthus
Susan
##chu
Ibra
TM
natri
Bun
bở
Mừng
chội
Ag
tróc
##tr
Kiện
##ath
Thận
Stra
Zenit
amin
par
Cừ
Arthur
Ol
Tag
##obi
Uzbekistan
estrogen
Fast
Chiết
Force
DV
Osaka
##orussia
hó
Indian
Mas
Duo
##dn
Athletic
Hodgson
Keane
Algeria
##uro
##ding
khấn
##ele
##tter
##TO
Mikel
cõng
##ction
##off
490
reviews
##ning
HOT
142
ôi
##shin
Beach
Ok
##sto
##pho
phồn
vãi
Non
ươm
lẽo
##uta
Thor
Hook
##tur
liêu
Lane
Korea
##galus
212
Demichelis
vồng
##kar
lạy
##ops
team
UB
Nike
##nic
Ducati
Him
Four
1926
##TA
##back
XII
##mit
hắc
Ky
VCCI
Tablet
Start
##une
CII
Busquets
ekip
thệ
Hạo
Uganda
ngấ
##ere
Sùng
##stra
are
Chết
Suthep
ghẻ
oải
xuyến
Kyung
Tito
Jetstar
272
Mars
##hẫu
muống
Japan
Network
voan
vữ
Mag
giũ
bass
quệ
Der
ABS
215
Mus
CTV
235
CBS
##less
Granada
Síp
trồ
##adi
##enberg
lem
Pennsylvania
stylist
manga
Stalin
1909
Ottoman
IE
##side
##nik
Teen
Zaharie
Not
Dae
148
NBC
cuoc
tể
SK
SC
Dĩnh
Ran
Khoá
##eli
tợn
##ND
##lli
Powell
Lũy
ad
mửa
Đạm
Jr
Geun
Oppo
gỏi
lợp
##oy
Athens
590
##oli
chông
toilet
nỡ
MWC
##oo
coupe
India
Conte
Of
##ON
Pogba
Toronto
##nin
SAM
Bội
Istanbul
Razak
Wal
Ngoan
Arteta
Blade
##27
one
Atom
ballad
##TI
nháo
Douglas
éo
KDC
EX
phèn
giễu
Tommy
##ern
##bach
RS
##CS
##uda
Western
Gra
xùm
Wells
##sar
Bọ
Má
Hollande
múc
ACBS
macro
nguyen
Khổ
Liveshow
font
##house
Đo
sớ
##gel
chòi
Venice
##hy
##eck
Lukaku
gym
Bobby
rụ
HĐ
Rang
Kei
nhuần
164
Market
Alfred
SG
##ries
Schurrle
##96
pi
ngớt
Vietnamnet
##pp
gă
Watch
Sub
##ds
Orlando
nhỡ
##ose
giẫ
Bosnia
Iker
Copa
Hagel
Samson
lư
##mark
hu
147
##eni
Wolfsburg
Pablo
Christina
hử
##chy
##pon
Haute
Ry
192
quầng
EPA
sin
Stewart
Colorado
1906
##91
Cesc
ngót
trượng
VIII
PVD
##bro
Ao
Germain
##ode
Kardashian
nen
Down
ganh
##tar
##xa
OCB
Tụ
##ava
Yun
Bưởi
##SS
##cker
##iensis
Bồng
Russell
Mù
##mba
chĩ
Zi
Kỵ
rá
phả
##mas
trieu
IQ
1921
##itz
hun
##TC
Olivier
nhăng
##ins
hybrid
Ltd
vẩn
##day
Fuji
Nhựt
##mg
lóng
Run
Kilo
Dai
Koke
##bert
Mali
Tải
Laura
Ohio
##lie
Lake
##tos
##ska
930
221
driver
Pinto
Cáo
Jeju
768
Bean
##rak
niu
ổi
Vatican
casting
Jimmy
Xiêm
##are
Lau
Flamini
Lạch
Hới
##1000
rapper
##hăm
Ngự
##lle
##usa
BP
Paraguay
Wright
##ique
chảnh
##IA
đơ
nong
sài
##33
Muôn
Dục
KBC
Kè
##31
##end
##PM
Cesar
##rid
Ia
Kun
Lọ
##more
##antha
Azerbaijan
Euphorbia
Henderson
Lei
Xuyến
Trans
tía
Chicharito
Management
Timothy
PVC
802
##uýt
##AL
Nhãn
jazz
span
Bì
gờm
Túi
Odessa
Travel
##pal
##225
##229
Giàng
##ido
Navas
Gray
Today
vẩy
##par
Cross
Áng
Slovenia
Mịch
##ire
Brooklyn
khỉnh
Perth
Của
fi
Heart
NSA
##eon
Einstein
Kay
Gro
Ser
Limited
Dallas
182
##ẫm
bitcoin
##zan
LX
PH
##etti
Basel
banh
nhác
chàm
luố
UK
##if
##ise
##bor
Asiad
Maxim
Space
EP
##vn
enzyme
Tèo
nua
LP
xắt
##etta
Mohammed
Pasteur
Civic
Holmes
ĐB
##win
##07
##vis
Ghost
vát
Arafat
Catania
phiện
##eng
sấm
Beyonce
Titan
Bus
comment
Hen
Taka
718
Mohamed
góa
Weibo
poster
##ien
Player
Duyệt
Eco
Take
toái
VĐQG
Diệm
##SP
##gna
Mễ
chạn
Gạch
tét
##sel
Atalanta
Dừa
NSNN
Estonia
##her
Lũ
##ính
##una
Hae
chùi
diêm
Press
tho
Coupe
vằn
Fort
Zuckerberg
##RC
Elly
HMS
1891
Cơm
gao
##38
Mẹo
Batman
nẻo
Bút
Vogue
Gas
lác
Hư
Yuri
Control
825
ối
##kha
##mu
Okinawa
bướ
thỏm
##tta
Henri
CQĐT
##ld
How
Joong
Virgin
275
Nô
Chạp
##228
rap
##56
Age
Airways
Cris
hù
##FF
Sean
phui
##cle
680
Kat
Dance
Thó
##ớt
174
Kasim
##ianus
bệt
SCR
Jamaica
vẹt
Emily
Tồn
##sis
TL
Gre
giỡn
SGD
Khoai
Australian
QUAN
##ứt
hực
tằm
Siu
HDD
Gai
OK
##sti
mọng
##rac
162
##29
##vel
clo
##use
Symbian
gel
hip
##IT
Goal
##lus
nhối
##230
Mallorca
Knight
cật
Fran
##AF
Channel
Cienco
khùng
Dal
Vnexpress
Macau
Ash
Bryan
##nica
Hamas
Kal
diết
##mes
rạ
Phnom
Boys
Doi
trụi
Hua
Mưu
Halictidae
Page
ngốn
ĐHĐCĐ
Hor
VGP
Nem
##och
Kristen
rẩy
rè
cồ
##SI
xúi
##elia
Bern
##sii
##CT
xở
Adebayor
Clasico
Nasdaq
Wild
TCT
##tho
##ima
##uga
Sel
Gibbs
##ega
hỉnh
ju
Bugatti
Friday
Hishammud
concert
Figo
159
##én
##CH
161
GMD
bít
nhac
##ôn
##gal
##lov
Kris
Villas
189
Ngạc
Messenger
Tunisia
Diêm
CSG
Arc
Dọc
Rad
Nico
IC
##fu
Aquino
Ngủ
PDA
Op
Tanzania
pizza
chằm
XNK
Katie
phone
##ple
Anti
Benjamin
NGUYỄN
nà
Nemanja
470
vít
Sense
##ami
##101
tuộc
167
Xêút
Nổ
gả
##lot
Khâu
OTT
point
Stan
Graechen
Search
##ình
Sta
##ast
AMOLED
Arizona
Latvia
Zabaleta
Dưỡng
KTS
Ice
##wo
mac
dơi
186
hững
##set
margin
##dae
Seattle
Infonet
Coutinho
Lotus
điếc
##log
Design
Jam
rạc
compact
Michigan
##hẫn
Felip
Records
960
##game
##ân
Jerusalem
McCain
đản
##bre
##yang
Bella
Berdych
Nvidia
Moss
Tỏ
om
Bernard
tròng
Sur
##sca
##ej
Lisa
Clark
Fri
Gran
Larry
Jorge
Trục
Nhậm
##ín
195
name
Pink
Hyo
Cột
sofa
##icola
UNCLOS
WhatsApp
dượng
electron
Taxi
##93
##gate
sủng
Marshall
Bry
XIX
##ms
299
1902
##pen
Rico
##ole
PTTH
nghé
NPH
Mori
Cairo
cút
Ann
1895
vánh
Nhỏ
Racing
Magic
Mạn
bỡ
Rút
COC
Chiếu
Didier
205
##stone
##spa
BLHS
Talent
lán
Tá
##kawa
LAN
##uz
Kin
HH
KS
610
LGBT
690
hack
vàn
Dụ
Ethiopia
hotgirl
Apollo
chuyen
##stan
testosterone
178
217
Foundation
Gordon
##rol
Len
Bạo
body
Dior
Robot
Hernandez
align
núm
Jersey
check
suyễn
Bân
sp
Incheon
Chuối
Penh
##ille
Salah
Santiago
Prime
Piero
##hr
Bio
giế
##eda
Hero
Vươn
Fernandinho
##pat
666
Way
xiên
Hô
##av
phom
Phillips
hotline
399
##lim
##pu
Viber
xemay
Mir
##ill
264
##81
##andra
Azpilicueta
Shakira
ngẩm
Củng
Huyên
325
##art
quáng
050
tuồng
166
True
##tle
Guillaume
Nhiễm
Zaragoza
218
mạt
bảnh
##ito
##dri
Oregon
224
Trust
Mực
lịm
##air
ECB
##iga
Kéo
phablet
5000
Cò
Cl
JMG
##ễn
xiêu
##ois
This
##zone
Kurd
hột
##lô
Winter
Scolari
Yanukovich
Đính
was
##xin
##tsu
##phe
##ule
lẻn
vự
BID
Rich
uk
1903
Kharkov
##át
Gio
Kane
242
Gon
Coentrao
Wikipedia
chấu
Hỷ
##feld
##run
điểu
eBay
ND
222
Grace
mích
##49
phùn
730
muon
##pod
##ory
Chè
Just
Xoài
##AP
Mos
sanh
trụy
##ade
##39
Jese
780
Nelson
English
Queensland
tamsu
end
Gam
gov
DA
##xia
hẻ
Reg
157
Igor
Jeon
##83
##mal
Đợi
Years
##59
giắ
Bas
Wednesday
##moto
jean
Miến
futsal
Marvel
Titanic
Albania
Kor
Lohan
169
NTM
photo
##poli
phỉ
##TT
luc
179
Bkav
Law
Zenfo
Rod
Singh
##stein
Cool
Hat
miến
KN
ES
##ania
Piaggio
Philippe
Motors
##ls
##lina
##sus
##kV
##zh
wa
xâu
Tiếu
Zo
Water
cacbon
##non
##los
bổn
Catalunya
Chỉnh
Dả
##DI
Scarlett
Helen
Parker
Barbara
##iệc
Barry
##chan
Denis
doping
voucher
##sco
Premium
Rice
Bru
August
##nu
Đồi
Wilhelm
Kawasaki
Rosberg
PPP
EOS
EF
##224
Universal
nhầy
lự
188
post
##ret
PL
Stars
duc
##ori
##34
tie
Fanpage
héo
we
Máu
##Book
090
Hills
CTG
##iko
thùy
Neil
UFO
Sp
##orum
hinh
1904
sch
187
##ever
Uyển
Massa
Grande
lõng
Security
Formosa
Division
lèo
##lum
Mat
cún
##ớc
Sul
Classic
Cấn
Carey
##ges
quàng
Puerto
VT
Wen
Silver
Chấ
##bri
173
Boateng
Navibank
SHS
BCH
not
Bahrain
Paolo
Dual
PSV
Karim
Robinho
##nal
Siberia
##gram
Craig
gala
Mồ
Interpol
Buffett
##sey
Fred
Point
NT
Wembley
##ob
Prince
Khoan
nhen
##bb
##hin
##mail
VÀO
##74
255
selfie
Gonzalez
##aro
nhói
chóc
Future
Vienna
Glazer
Mụ
##huỗi
Hugh
##sse
nhừ
##73
177
Nhảy
vẹo
Xabi
khờ
Gmail
Innova
Dụng
rợ
đanh
##escens
##arley
Make
Kas
##shan
car
pre
Engadget
Ashton
Jacques
data
Rafa
Science
##row
Trích
##war
Was
cotton
đuốc
mướp
##gra
Tráng
Gonzalo
Ward
THA
198
Spider
##ance
##84
Vả
Steel
##und
Lille
Christ
Cừu
##cra
ngo
##MC
luồn
Thompson
Bengal
Thoát
##hoạt
BGK
Nối
##dd
##tti
245
0511
Hamid
nhạo
liu
##cht
##bsp
SỐ
##NK
##lor
##town
chau
Academy
chẻ
DHA
moon
1907
##pidae
AG
Smalling
Nord
Lem
##rc
##cent
tuôn
phộng
Madagascar
Charlton
##bot
ISS
##oth
Rhône
LMHT
What
Tớ
lỏi
##ets
##wer
Ellen
Skrtel
vitinh
March
Slave
Janet
##rô
Dũ
vắcxin
##lvaro
Roberts
Die
Gr
Vallecano
Celtic
Summer
IDP
##BC
đờm
##shima
Chỗ
Luc
Goh
##anum
##ới
##77
Gravity
Server
##ioides
##eva
Rôma
Colin
đóa
titan
nhuệ
Chì
Fra
Stanley
FI
báng
##cas
##jan
##NC
dat
##dic
dìm
Miu
VietNamNet
Angola
đoái
##light
Nor
Somalia
620
ngác
ROM
##gg
##esh
##227
RIM
285
Anton
liếc
pseudo
##sso
##bas
Computer
Marquez
Chừ
Janeiro
UAV
Mari
Pomeranian
DD
Soul
khanh
lườn
458
Jet
lượm
##85
Por
##arra
##far
CBRE
Bayer
##cium
##odon
##ifera
bợ
Company
##TN
Mur
##KT
nết
bét
##ship
265
THANH
##iv
Quái
nhảm
Low
Var
Tele
thướt
Ala
ket
chỏ
##ovich
##ista
Pal
Award
Algérie
Ngoisao
Almeria
Sing
Ang
Made
Mập
cợ
8003
And
um
151
lụ
##aba
##old
nhợt
##nk
##râu
Khuất
Active
Macro
Brand
410
##chus
820
Sốt
Bros
IX
Ibrahim
Cleverley
Felix
County
blogger
##urus
vựng
Met
Mỗ
366
Chao
Cara
nhọ
Corporation
lim
Hanh
##750
Miêu
Khái
rầy
Over
XL
##ẹp
043
246
##MO
hiu
##mir
##CP
##zon
Demi
Gadhafi
##ăm
##EP
##777
chiêng
Ever
Are
Leica
Centre
bả
app
FPTS
Dia
##osus
Marca
510
##pper
Tymoshenko
Vilanova
nhò
##cor
Khơ
nhâ
##for
Newton
Code
Olympus
Oxlade
Rachel
Turin
##DC
Vinpearl
Kwon
172
Lụa
##chenko
##suke
xy
thình
##ful
Alberto
Guy
Savills
VnEconomy
lổ
##ace
Ích
Kosovo
Boro
Trống
Khiêu
Luxury
offline
##iella
##03
Ir
Jacob
Sneijder
dioxin
José
Vidal
Xà
##str
hecta
Everest
Morata
Trend
rục
##SE
nớt
##MT
660
Xưởng
##tina
ob
Cạp
Brent
Tru
Financial
Liberty
Hand
made
Bún
##NT
##press
Carvalho
Nghé
Graham
Hassan
Pur
trĩu
Compa
Nova
Oxy
Phán
1898
lốt
Tơ
Revo
thuong
##68
##sion
đay
##mis
Súng
táp
Đố
##ess
Fer
NFC
Dá
##ove
##iel
ngậy
sứa
nhieu
##oka
Days
Vở
Bavaria
##gas
Masa
##gh
##omi
##dus
##aga
Rap
jo
Tắm
block
khố
Lycos
BHL
Focus
item
##pter
##aco
##lit
Zimbabwe
vol
##SA
Gal
##eria
##37
Pot
##aca
Elche
Trồ
206
Char
##88
Isaac
Pla
Hindu
##shire
##phan
##tambon
Higuain
Rắn
201
##ffe
##ain
Xó
##elo
nhẩ
nhẵn
SAR
chầ
Shevchenko
khuỷu
##LC
CL
VS
##eno
Adobe
Dennis
HĐH
##gor
xớ
rôm
555
DK
Maldives
Ricardo
webcam
chẵn
Kam
AV
col
Kur
xiêm
Aviv
Poroshenko
Miguel
kiểng
##ẹo
gài
##aris
##eau
Elite
Anth
Lily
MAS
chùn
event
SCB
1901
FB
Rờ
Ted
Aventador
insulin
Julius
nhẽo
##IN
đát
nhè
##var
Wat
TK
223
mascara
Whitney
Sô
Maps
##py
Manh
Marcel
Cockerell
Lea
911
##LA
##rata
đờ
GI
hê
uraniu
Ven
mành
##bat
trũng
##icum
##ical
207
##út
Bla
##ware
lọn
cừ
Mid
Zu
1899
##uống
IDC
##380
##DESCRIPTION
Benth
##uf
##rian
##sley
Bradley
Wars
Dylan
duỗi
Diêu
Chat
rọi
cui
##OR
Chạ
Insider
204
##ress
##evich
##RI
202
Carvajal
VNACCS
Turbo
##vir
view
time
ngò
##lop
Get
trans
##tex
1896
888
ANZ
NDH
vietnam
##rịch
EIB
Vắng
Thợ
bẽ
Khoái
QG
Demb
Cốt
Aquita
Rey
Turner
##ID
##ede
##sz
pastel
ắng
214
IB
modem
tịt
Int
Địch
TC
##ằm
TG
Union
NAM
Alt
##650
Dean
Button
Ất
your
Mode
Javi
##ET
Sil
cell
##AG
Mol
Timberlake
Vinacomin
Ninja
203
ĐTVN
phìn
##PI
##gio
Harris
Luxembourg
Research
ngầu
Arg
Thản
INE
208
fa
rìu
Levi
Starbucks
Alibaba
Lennon
crop
Vancouver
Last
Has
gameplay
Hẳn
711
1500
##iae
ốt
##66
##ovic
desktop
OSCE
Dor
dia
Hello
Maha
Hiế
##aj
Vios
ruổi
mõ
ran
spin
Edge
Pó
nar
499
Vieira
Ahmed
Ballack
phăng
Rolling
Kahn
Muối
##phy
Ranier
FX
bích
##yen
Dam
##rich
##RT
##llo
##ioglossum
##rick
QWERTY
##anh
Mis
211
Walt
EPS
Muhammad
Megan
Elvis
##form
##ianum
##AI
nè
840
##pet
Diệc
Xóa
##gn
##ati
##ilis
hoe
Bat
##mbo
THẮNG
Vision
##XH
Xong
Clarke
AR
##oz
##stro
Hughes
##avi
Seine
##510
tráo
Tia
Milano
##ail
##ifolium
Mại
That
193
Edu
##NN
##uff
Khedira
Manhattan
Solomon
##DP
##sper
ThS
Beatles
Toại
Tui
Under
##ctor
anti
##Pro
##001
Scandal
Bri
##ides
Tara
Carr
Voivodeship
Pearl
Tsu
##ag
liế
Sê
VC
Vissai
hien
Đãng
Diva
Eng
Ker
##cio
RC
Monroe
thuỷ
##hir
Pak
điếm
Mei
Vải
##ack
1870
Sắt
NGC
Legend
##hục
Fujifilm
##sc
Part
Pass
Vẽ
##mic
Lucy
Luông
NC
chộp
hạc
víu
Biden
vien
Kom
Seri
tịnh
##kal
Ole
##amine
chự
##uli
Sapporo
Johansson
Litva
nài
Johan
boong
525
308
##uka
ráng
Tsonga
ĐTLA
nhão
##via
thoắ
##xe
191
Livorno
DongA
Chên
##iều
##450
269
Né
##ted
Charlotte
##dam
Mil
world
Hoà
##Hz
Discovery
Veyron
##áo
OGC
Us
Valley
Sergey
Philadelphia
##EL
tiệt
CCD
Belle
DHC
##ux
##sp
vó
##rót
Vermaelen
Skin
lòa
Rat
mé
Bolt
Orange
##tas
nhẹt
Vel
Cyber
Nham
Berg
Chuck
Omar
##ound
Chàm
##ave
IAEA
liêm
Story
TD
Bee
##pot
Care
Ngă
##76
##dom
Philipp
Eo
Nouvelle
Ou
##LE
hót
Pas
tuồn
##EX
Milner
Joel
Raj
PK
Robinson
sú
phích
Oracle
Reading
Mé
quẹt
##ppa
Chải
Nhiêu
Chai
Simpson
Timor
Chart
286
FZ
Boris
MA
Kawa
Lắc
##hua
Holdings
216
Mak
chít
duong
Bis
ngỗng
gươm
1897
khiên
Come
Goldman
##720
See
##times
NB
Yatsenyuk
Marilyn
Mueller
Data
##550
##gle
thằn
ap
Điệu
tran
Bil
##life
Movie
228
Service
Ronald
249
##ẳng
##chen
rả
gạc
nhẽ
Cloud
Kyoto
XEM
Gỗ
##ẵn
Hunter
Romeo
Pôn
Abdullah
Software
Vertu
Baek
Talk
Búp
##ute
hỉ
##chia
UN
Face
##ằng
375
KV
Monster
Lauren
305
Mt
770
1200
Shanghai
Anelka
Ong
Lưới
Carol
##ịch
Raikkonen
cốm
Tun
teaser
##ugh
crai
Elle
##TB
##ssa
JICA
Keangnam
Monday
QPR
##gus
Fone
##illo
Turan
Joan
Bordeaux
phũ
shopping
##cl
Dâu
##amp
##oro
cọp
Armstrong
Viglacera
Thách
ngưởng
WTA
Nóng
Wonder
##lê
##BS
Drive
##ash
SeABank
##iaceae
tone
Range
Parkson
Thuy
1894
Linda
Coi
SGGP
##cap
Seven
##char
##ME
181
Tịch
##ote
MBB
nhặn
Champion
Square
Derby
Cafe
1890
trề
ME
##125
Mayweather
chôm
CMOS
##OC
ACBI
##ick
Test
máng
##PEC
Place
Inzaghi
Vinaphone
xèo
Franklin
Midu
##FE
333
nuột
Bloom
Dy
Bể
bự
Eiffel
tràm
Ráy
184
##cos
biet
760
##jin
Spring
##nt
dầy
vote
pH
Lipo
thía
##ên
295
cùi
##rri
Ossetia
Pradesh
##aku
Es
salad
##head
TPCP
##aka
Xinh
##RS
veo
Siri
scan
Amanda
Lab
##ert
us
##uba
##huộc
Ms
TIẾP
Outlook
##EE
GMT
CX
Lima
Hạc
Berbatov
DOTA
Rex
Elater
Itar
##fen
Res
##uan
Bing
Zlatan
đận
##ij
##lee
##iye
khế
##ili
Schmidt
para
nịnh
Boas
##thy
##cis
khê
NX
Fin
##ego
HÀ
Tuesday
Castile
Vinatex
ngáo
kìa
trập
Shan
VNG
##ashi
Hewitt
Siena
234
Goo
hcm
##til
##lt
Born
Arabia
lụi
Beats
Caroline
Phillip
Cưới
Brothers
##cta
##uck
Lite
Draxler
lỳ
Jelly
##emi
Cisco
Rô
Bart
Kol
Beck
Twin
AF
Nat
TPBank
phước
sushi
196
TCM
vacxin
nháp
Kê
Lambert
Hwang
##247
##die
Sand
ANTT
buffet
hến
Cla
##ize
hừ
NCT
##mia
Collet
##das
HO
Adidas
##eco
##ord
##Ảnh
rông
Copenhagen
Woman
Jaguar
##fan
##ias
Duệ
##SH
TMV
Bae
Tass
Mass
##hal
Honduras
GPLX
Đẫy
##eth
Tur
Storm
Hard
##EF
Trạng
Vietjet
Lock
new
Deutsche
nấ
##aea
##mor
thồ
DiCaprio
Đích
Asha
Ling
Mitt
Sarkozy
##ters
multi
##heim
NO
##achi
tấy
Eriksson
Sultan
##phon
##aw
Bề
Ober
With
Mĩ
##ovi
Empire
Mobifone
Prayut
Retina
fu
##44
PMU
##ội
Band
##ạo
Mb
Acacia
Technology
hợt
Vạc
Fun
##ery
Patric
size
Chavez
##enne
Visco
Bỉnh
209
Ngạ
Ul
Electric
Family
Ngõ
Ria
Hẹn
##oda
##dale
Liban
EUR
CF
Đê
tiễu
Gregory
##DF
##eti
Papua
Sandra
Ple
Xiao
Rayo
Nghỉ
Varane
Ghế
don
Gru
Lord
Cham
QLTT
Dun
Atlanta
AUD
Hauts
Dante
625
##vers
##tana
##hel
Ari
##ander
mar
##pel
##anensis
Margaret
săm
Pictures
Dạng
##sten
##opteris
Đua
268
Kelantan
Mignolet
tệp
XVI
##220
##hai
Mira
Comp
Arnold
Nancy
Ranger
Lavezzi
kilômét
##pia
Moody
##sol
Treo
##top
##rom
tề
Fund
SCTV
##owski
Piper
##OM
lênh
vồ
Francois
Enterprise
Runway
##ssel
England
cựa
Erik
Ei
Ryu
Sierra
Foster
##sho
1860
##ball
##pra
thau
Franz
Pia
lạt
Napoleon
ThinkPad
Mariah
##ẹt
##icollis
Hút
197
Cre
Hiro
##rah
790
Color
##ith
vái
Broth
lạp
Khôn
Roddick
##uet
Pont
Naga
Xưa
##TH
Hơ
EURO
801
auto
inox
##DN
Pomerania
Bit
Wong
HUD
Syn
Bol
Osama
séc
Hawk
##pad
##nna
Fukushima
Carroll
rúp
cữ
Tiffany
Naka
Angkor
Mach
##wal
Pete
THI
##but
Guatemala
Lugansk
Nicholas
Thursday
Đẳng
Natalie
##mun
Nhẫn
##imex
241
##screen
LE
Koh
Turchynov
Norman
213
Depp
hụi
polymer
##gne
##TL
khư
Chặ
Mát
##sun
Lip
BCTC
Bosque
Harrison
baht
##CD
##sim
Kindle
Cur
Hoo
##ANG
##nc
Rogers
001
Franco
guốc
Uỷ
lich
##cat
Busan
##agi
RF
Block
1885
super
nẻ
##110
Lynh
Dev
Nishikori
Phoenix
loáng
FIR
##08
1889
bien
nhọt
##SO
Quãng
Stockholm
Begonia
HOÀNG
KHCN
Ngàn
back
Marin
Sei
Excel
##mani
brevi
Cass
Film
Lát
229
DESIGNTIME
Collins
Vay
##ism
##pic
khất
miết
##sma
Ngang
4000
Dead
TRỰC
VietJet
héc
Guinness
Matteo
xẻo
Toro
Cry
Break
Naomi
##nak
Gmin
KitKat
Year
duhoc
format
Hel
810
##won
Hiddink
Decima
lọi
Cưu
##cto
Pav
JW
DỰ
răm
SO
##iro
Gabi
Verona
trịa
1871
Nhựa
Ebola
Kit
##HC
##ía
Ton
ạch
PPC
226
##ạt
Mohammad
Montenegro
NTBD
Abbas
VCIS
Rủ
free
ARM
Mississippi
Hudson
Murphy
262
Malta
##ward
PVT
##520
##HT
sat
##els
##qi
Deep
Bơ
mói
##ssi
sến
##phylla
Phê
Tít
##quin
mafia
Sofia
bốt
Electronics
##bet
evan
Deco
Lac
Liam
Vây
Normandie
Pie
nylon
##mai
Josh
Chin
Ching
Occitani
737
NG
mono
chỉn
icon
cữu
ara
Fal
890
Bass
##oe
##ợt
khàn
Davidson
##ée
##330
Kanye
##stri
Giản
Bartra
NA
Glen
GĐT
##tec
HKPhone
nít
Cồn
VDB
inter
##ect
shot
##OL
##ời
phàng
nhơ
Buenos
Austin
##tii
chipset
Bro
form
830
Há
ATTP
##vu
Aires
##time
##nos
##oku
pit
Gang
Sc
##worth
##ches
Hell
cáng
Mozambique
Pentium
##ces
##tsch
##AA
Bert
Adele
BL
Ngu
Pocket
Vinhomes
Vietravel
Julio
ghẹo
BA
##ềm
Ác
Epi
File
##hat
Jeremy
Fabianski
##max
dam
##eum
Casa
##iki
Who
Lippi
Lợn
Crouch
##mart
DT
Khiếu
238
Bir
Luca
omega
Clear
Straits
tab
Elena
Snow
Aleksandr
##ison
007
Concept
Hé
##eur
##nas
GPU
Đờn
##ów
##inger
##viet
tau
Vừ
335
##pid
Fish
##tern
Trào
Banks
win
247
Nara
photoshop
Robbie
##rou
##kai
Keith
UV
salon
Cinema
Mumbai
Special
ăng
Rosell
Chae
cọng
Tiện
Kyrgyzstan
##ean
Roll
##120
Silicon
Lựu
thơi
##Title
##osum
##DIS
húng
Ré
Điểu
Lukas
More
Ahn
599
Dài
Alabama
##mura
##nov
Webb
##rad
baby
Shield
Toi
##lly
mị
Tal
##IP
##TD
031
##ons
Sớ
Women
lb
đầ
Lật
##world
##iformis
##aire
chửa
thúng
##chai
Andrena
##tine
Panda
Kashmir
Saturday
Oz
2025
##ợc
RE
##mil
##CI
Merseyside
lắt
home
denim
León
##tour
##BJ
##ses
QK
##had
hớn
Two
toang
##gun
Kidman
Nauy
##mid
##ều
Chiếm
Cra
258
Ob
ngóc
Caribe
Credit
Hiera
over
##vent
Calli
Gạc
Kru
##nel
pan
Hoon
Nhai
Dimitrov
Đéc
Settings
Pato
Rim
Thước
Tày
Urban
##show
Hannover
Versace
ngát
Rối
AA
PP
td
##mmer
hàu
0942
##arex
098
tởm
##FI
##ặc
raion
Pod
##zin
tươm
##ono
Kiêm
Smile
MERS
##lik
vù
Coco
##uong
hì
Kabul
Wind
##ort
##Location
Hỗn
Mountain
##ios
Chau
##nen
##bis
Damascus
Moldova
Salvador
update
Marina
AB
mố
##ough
##VGA
Om
##iba
Gangnam
quẫn
QĐND
Múa
##tten
CBR
lặ
##mara
VĂN
Sunrise
Update
##rod
Andres
id
Giậ
##oun
##edo
1888
Dave
Ace
##udi
##sie
Indiana
Lúa
Continental
Hunt
bỉm
BVS
Pel
Mayer
Sten
dấm
##tai
Pepsi
288
##mAh
##DR
Nielsen
##ulata
trứ
cỗi
##card
Greg
##pis
Mara
nòi
rên
trồi
Bạt
##key
KP
##oga
Kì
##tom
media
EA
274
cach
##LS
Rev
Duma
cy
thẫm
Lecce
XIV
phung
Arn
##98
Đem
##dai
rứ
Bul
##nce
Arbeloa
Godzilla
Independent
Rom
dieu
HCB
EV
##ện
Rin
##asa
Spencer
Senegal
##uch
##ilia
trạch
##ree
##OO
Pterid
Andren
Cate
tieu
Lay
Cadillac
uổng
Elm
KCNA
ab
Lion
##ardi
kheo
740
##zio
Kitco
##issa
##PL
site
Mảnh
Sâu
##vit
##pl
Măng
##lai
Bồn
Chiang
##vat
Siemens
Cháo
Gucci
Nở
bặ
dĩa
1883
Guam
##oglossum
Szczecin
Săn
Hitachi
thỉu
GV
nhòe
Tray
cut
semi
Nghè
Thuyên
Report
rocket
Wil
Dion
Diaz
DMC
Phép
phat
ay
Franche
Fit
##69
Phẩm
Gy
##ác
##480
bươn
##ault
vè
Thong
Sachs
Gha
##horn
Heli
Detroit
gameshow
Mác
##DE
##CM
##hiro
Cua
##graph
Julie
Tí
Nole
Psy
Hathaway
cocktail
PHƯƠNG
Avatar
Interfax
CCTV
Richter
Vanessa
##oko
TTVN
sậm
Klein
##dol
Hercules
lỉnh
Riverside
guồng
VF
##sai
Cheng
Hymenophyll
Gel
Sparta
tành
##kel
Claudio
Napoléon
Nikkei
Zanetti
Collagen
Thêu
nanh
##vid
Novo
##tông
##ãi
##lab
##ook
Easy
BVSC
đoản
##dro
Ấp
Fre
bẹ
Pil
Playboy
Darwin
liếng
Bế
747
art
bủ
nhót
##URL
##dur
Đủ
Zac
Gắn
##ual
##201
type
tuong
##ầu
##hierry
##erre
##ẵng
##oud
Ariel
rởm
Frozen
rinh
Marine
SR
Hon
Marcus
##pol
VNE
AU
NY
Reina
355
dốt
##Scroll
boot
BSC
Cài
Orion
##GA
Clo
dơ
##pas
##bs
Bendtner
Cannavaro
marathon
Sumatra
Rowling
Hòe
312
Ankara
Mia
Godin
Kad
McCartney
Maryland
244
Sakura
670
ducanh
bĩnh
gấc
đềm
khoá
wi
##fish
##XL
##oba
##rab
Bộc
Nôm
Jurgen
crôm
Florence
##rant
Tem
seri
##aux
beng
Đu
636
##ping
Plan
##TXH
Spurs
Rama
Flo
##Bar
Final
Emmanuel
Olympiacos
Comté
##FB
Food
##rai
đênh
box
Tán
sấp
Bourgogne
Guzman
Mono
##kas
##rina
Dien
##ington
Rijkaard
Mến
Shiite
PET
mọt
Lorenzo
kham
tắp
Suri
Quick
PLA
Claude
Sherwood
##iflora
gút
ĐN
Off
hộc
Gox
Access
tóe
VA
##rim
##sal
##hước
##sman
part
##tv
096
##231
559
##ogen
##ites
Kos
##jar
Hydropsych
Lallana
Tiệm
Ost
Valentino
Kenny
kỉnh
Pizza
Mala
pound
##iri
Hei
Acro
càphê
Mandela
dẹt
Monica
láo
##sci
##FS
##62
##rz
CSKA
xoong
Andrei
nậu
##rone
ILA
Liz
Pay
##nit
SU
Obi
rặ
Tetra
NGUY
Zara
##oul
##lé
Ngoc
##uy
##try
CNOOC
Stanford
##uc
##igo
mp
1880
Bong
Mul
maxi
##CN
194
Advanced
VHTT
##xo
##ales
ngạnh
ngông
thổn
Lenin
ACC
Fat
Save
##vor
1850
Halloween
CDMA
##hor
271
##oa
Vịt
tòng
236
chãi
880
Add
rết
HSX
##ước
##uchi
306
Zero
Trú
##cast
Chậm
##360
Vesak
##etz
1878
Sti
Hoắc
##cel
tâng
ku
phết
Boss
OTC
CGV
##IL
##ishi
Hydro
analog
##rl
##zar
319
ngạn
##dit
1886
##ieri
Oman
Cassano
choạng
Thuấn
Daewoo
##CV
##dens
413
cc
##court
328
##view
##bay
Poli
AD
Lou
##yp
loanh
##lid
Kolarov
Schlt
Ruby
##yne
##anna
sc
nhoi
##lei
Gla
Maleficent
ngoặc
Jerry
Meloidae
315
237
DI
Rạp
Delta
Indi
##lom
##ope
##shu
HQC
##tek
##vert
##sei
Eye
DM
password
ĐỨC
1866
Chẩn
Kaplan
Topic
##mobile
243
##spor
Sor
HIỂM
Sprint
Kesle
##sio
##rga
THX
##ẫn
##ume
Head
##vic
gờ
core
Hustle
Santo
##SD
tiep
##unt
302
Spice
248
dep
Klitschko
Dynamo
Xiaomi
VCBS
Body
##RO
Din
Cou
Edin
oto
Fidel
261
##ogo
ADIZ
Bhutan
cộc
##band
but
VEC
NGỌC
nail
PVL
##CE
##bars
phiếm
304
##abad
TÂM
Crespo
Shangri
wifi
CASA
Vas
298
##jun
1869
Lon
Weekly
Darren
433
##ull
##ướng
Fla
Kent
les
Sheffield
Exciter
gổ
CNLĐ
Sunny
##care
Mordell
##oid
LÊ
ken
##kes
Bot
Minnesota
Furious
Jazz
##ante
Von
Av
1887
##tru
##idium
Image
Pet
Davies
đỉa
ref
252
##BF
Seng
Amazing
Lupita
LIÊN
Canthar
soda
##idi
Warsaw
HPV
Giã
Tak
Khoang
Gay
ngoản
##ộp
Kavkaz
Avengers
Xen
##ology
ĐS
##tov
Đè
Concert
Noah
##imi
##sum
Stein
Matsu
nộm
TNT
##rach
##oco
Century
nhe
Billy
##ơn
##ming
Fall
980
Andreas
PVI
CAQ
dà
##Top
Kurt
##àn
##kon
Lev
##ete
Olympia
FTSE
Number
##ltrabook
Zalo
##tto
AAA
##ors
301
##idia
##omo
ngố
UBCK
Chrysler
Thả
Right
Fiat
##sak
Meta
##RP
##dth
##rov
Geo
Luz
Thiệ
Becamex
Aniston
Shiyou
Jenny
##omys
Hyper
CAP
Systems
##get
##enta
Yak
##duc
BMI
##eto
lap
chuc
Never
audio
OceanBank
Eurozone
Step
Kyodo
1875
DO
##57
Mainz
##egg
nhằng
QCG
Ám
Rou
lõ
TCty
ghềnh
Sirius
##assa
Rangers
Tát
##460
##310
phàm
##ket
Kali
Thibaut
Essien
nhám
fax
Aero
HVG
##ovo
##eller
##halli
254
Phiếu
1879
Pax
Indochina
ballet
longi
279
Soft
kị
##vas
German
Azarenka
Bitexco
THƯ
mao
lóa
CE
##rine
dền
Ethernet
Shakhtar
Shimbun
Dick
##dio
Blancos
##onne
Nar
##endi
##alia
Otto
Stefan
ping
ghì
console
##ậy
Forest
yểu
Og
Sco
Math
mic
##thes
Sto
Tina
##een
page
Missouri
Mệnh
Vinschool
Dolby
Schwarzer
1884
WEF
THEO
TẠI
áng
##corp
Watt
Flickr
Gallardo
Nevada
Sanogo
Beast
nghêu
dô
Croton
925
##esi
IR
Cau
Zoom
475
QNg
Cad
sên
Solo
Marcos
##Toolbar
Mie
385
Jovetic
street
##chel
giậ
##put
Đun
Phiến
huyên
Jordi
##hiểm
Joachim
Xâm
AH
lieu
##gam
Tricho
news
Budapest
Lloyd
Phuong
##illi
Ferr
Tỏi
June
257
232
##bil
Citizens
307
Peugeot
Yellen
1861
##IM
albi
Ring
##CL
##oxide
Gill
710
Alzheimer
Bồi
NVCC
Hertha
bỉnh
Cheryl
##dr
lơi
##ntap
Joy
Gin
860
WC
will
GE
Abraham
Raymond
tong
đượm
Gợ
CON
##ssen
##hem
nhạ
Doan
Soha
basa
##uế
núc
Butt
BC
Bôi
##idis
Wii
Merr
##sit
##tive
##ẩm
Khóc
1868
1520
chet
Kepler
Agassi
quota
Baines
Que
##lag
##uru
rỗ
322
##wen
##its
magiê
Dakota
Country
bẫm
Huang
Sahara
hóng
##ondo
1873
er
Bl
##pit
Marne
1865
Mot
Pavilion
Heo
xoan
382
##rena
##rem
khac
scooter
Hara
Karen
MBS
##tain
Gioan
If
Lắm
##uồng
Ep
Pr
Hope
gợn
Larsson
Đẩu
##fre
diệp
Stylist
287
##ibi
##ost
Gene
##orn
Doctor
gara
Mì
Santi
module
##210
Halle
##eh
##NA
VFA
384
Composite
Flanagan
Reagan
Trăm
Moses
Ngâ
##TU
Shell
chồi
##wick
##sat
##ocera
##odi
stereo
Roosevelt
Manager
##nova
Chrysop
Tuan
Sò
Mozilla
Calvin
BQL
Jonas
278
Nature
##lich
phốt
Hủ
spam
##hắp
336
##col
##ÀO
Chr
Gotze
DVB
Nong
Transformers
##daily
Russel
diếm
albo
1882
Turk
dich
Mâm
ĐÂY
##DL
Thố
##bul
lủi
##LV
Mut
Grey
Nguyện
Mead
Cream
Christine
nê
KB
##rna
ter
kit
hẹ
Clichy
Ralph
KHÔNG
Subeo
fans
Mendes
Pires
folic
Side
##ấn
Chong
Yangon
##iết
Menu
##rica
Haram
McIlroy
Tajikistan
Nhện
RX
Modern
tầu
Webber
huong
386
Potti
##SM
NTD
Yeo
##chlor
Maybach
##tham
tiều
Engine
Berry
Dang
Carles
##dine
060
##hwa
QQ
##AB
Kid
Hub
cre
VOTE
ĐBQH
Cindy
nitơ
gui
Đúc
##II
##sang
Hz
LB
Hop
oc
##lock
mĩ
##vy
Aguilera
Brisbane
nướu
Tanaka
Bum
Giẽ
##Pad
uni
231
##BU
Nice
##MI
Phuket
367
Jindo
##plo
Nino
##VT
Luer
##DT
Yen
Eli
Habubank
Eb
Rà
Eduardo
##yon
banbie
Nú
Iphone
nhím
Hom
Sunni
Metal
##gre
Nhí
Himalaya
Blood
Đạ
Diều
taka
MD
Kap
##ics
##nda
diễm
Creative
Mathieu
dú
Celine
cầy
Bari
##nz
Adnan
Luna
##vet
##Plus
##ptera
BO
Mía
##lur
Kobe
##dh
IF
##nn
Blatter
##rik
thiếc
##wei
Sổ
Modi
##yer
##ax
##lak
##enburg
##tam
toà
##Height
Arda
Provence
RACER
Wozniacki
GeForce
đọa
1893
Hầm
QUANG
Ale
Marx
Johann
Beat
##ech
##iti
Ming
iCloud
Scarborough
##online
MHB
917
cafeland
Ivy
Barb
Alaba
Expo
2021
Main
Multi
233
##oto
Chưởng
##Resize
Shayk
##stor
316
Led
##cke
Photoshop
BẠN
bac
##ude
Spirit
Bold
Altis
Tắt
##bur
##folia
háng
bính
Kentucky
Kenneth
Fortune
CI
Sào
Pavel
min
##sburg
##ENT
Hoffman
Nghê
diếp
vin
Forlan
##LL
##US
Trốn
1874
##roy
BMP
fpt
Trắc
AI
Yasu
sắng
hênh
Ava
tap
##group
Luyến
263
##igi
##iyah
Auckland
Giovanni
##heridion
292
Sou
##uca
##amo
Mũ
Kel
case
##chon
Giusepp
Kramatorsk
McCarthy
nghía
TTĐB
##uel
Kao
Iso
311
Bravi
nán
ngoc
Avi
303
Angelababy
Cruyff
Trinidad
shoot
Rahman
Kodak
Claire
Lược
Tivi
##AY
##hol
Battle
##vil
McQueen
scudett
QBV
ĐHQG
Tẩy
##ein
Rử
Tamil
khoi
Small
##anga
chiu
Vera
Norfolk
2050
xình
##uensis
##iger
flavi
##AE
Ontario
Med
##ipes
##kie
##zza
Bora
ĐNa
AOL
tuyền
Act
Isa
##fra
##Status
##GT
Đoạ
Zone
##tip
Stephan
Tiềm
Tango
Fur
##340
##law
##Full
Ion
chớm
##pos
Nùng
Sheikh
nõn
ABBank
Tiago
Tươi
tý
IN
1020
Milito
OCA
##led
Mae
##nor
Past
##apa
Studios
##cco
Utah
Caesar
caro
##rion
Ave
##bli
Candy
shi
##yev
##nol
##osi
Boko
##ige
Mustang
Lescott
vCenter
Dailymail
Marion
IU
Logo
Droid
Viva
April
##pil
394
API
259
Lockheed
##NewWin
Caribbean
##kova
Loew
GDĐT
tửu
Tong
Maroc
Túy
rì
Samba
Arts
Som
QE
Hey
Ludwig
Tennessee
vWi
##zia
Bashar
María
pr
##rex
Lặc
Giỏ
cat
100046
Lind
##hong
trám
##ior
##fort
Pentax
##ifer
##tella
##lta
Prudential
GAME
gáp
##CR
KBS
Esp
Soi
rọ
Cell
Amber
Kle
##Left
324
ver
Auvergne
JPEG
Nixon
McC
Rider
Mill
##body
hong
1876
bâ
##izz
Kansas
noãn
##kit
Human
##ass
Reid
Pack
Flu
gio
Arm
CNBC
Suzy
Dominica
đểu
Stefano
Af
down
sta
##khov
##osaurus
1859
Maduro
##NS
Byung
##stock
Peri
##rjen
##sberg
##ởi
Hip
ois
##rez
##ểu
BM
Bó
dãn
Fernandez
UBCKNN
Juanfran
dua
Fabian
TU
nhó
435
Bud
##zel
Well
##span
##News
vượn
Vit
##vina
388
Ucraina
Montreal
Had
Melissa
##polis
BMC
them
Điêu
Vega
##oso
##eux
Connect
Oklahoma
Radwanska
TUỔI
##spec
##rand
ruốc
##sure
Dur
Florentin
##rong
Agger
##nata
key
cor
##ích
##cini
##anti
##cr
Cos
cuồn
##ally
##rel
##hếch
ngẩ
SAT
Churchill
Balkan
##mac
VR
Bướ
Blog
thỉ
Middlesbrough
Xoay
##elin
Miếng
##íu
1867
Village
##981
tich
Trỗi
bịu
##cop
HI
392
##232
##rap
Work
##pta
Heineken
Hoeness
VnMedia
Samir
thố
Rơi
Asp
Stop
##ipennis
##cic
Tệ
Language
Sicilia
Unilever
Phaolô
Querc
Henin
Nyong
biếc
Kolo
Second
lị
##2000
##opus
##dora
XV
##color
Salt
Đàng
Koji
rưới
khò
KL
Cuồng
Khăn
gấm
##arn
910
Hin
Roche
fo
##PP
##city
Tau
##lton
nghê
Theridiidae
Chinhphu
Tyler
khoải
Phô
Nhạn
Tàng
khóm
Richards
##850
273
##Vietnam
##ates
Gol
Tatar
Mona
Simferopol
VIỆT
xòa
Sợi
Moh
ce
Cứng
##fur
Cact
nghếch
CÔNG
Khỉ
##skaya
music
Institute
Case
##uto
383
Cồ
Edwards
Hunger
##nium
Hide
Ernest
đẫ
MasterCard
Lẩu
Tê
Jar
Asahi
##rate
Quad
Wes
taichinh
Zurich
GPRS
Olivia
##soft
Jake
##ink
best
Praha
Sami
AL
MK
##CF
Ig
town
##vie
CHI
Raja
Yale
1864
Lumix
Naruto
Maxwell
Zambia
ACI
Asean
##rey
##ulus
##asco
Info
##ppi
AZ
##cro
Tốn
##hoa
Association
Unicode
HCĐ
##utz
345
metro
##stic
XD
sha
##Phone
Veron
1841
Lazada
Shakespeare
Doraemon
##int
Atlas
router
Kathy
Nina
Anders
Lông
Gán
Đao
Cali
YG
Yokohama
Shadow
VHTTDL
Death
Stri
Stu
##eres
##gur
Rosso
##oca
Franck
Gibson
nhoài
Review
##hang
Jeep
Single
Poor
1892
293
Keo
Kiếp
Hài
##otti
Cour
##gard
##nick
Osman
fer
Châm
ADSL
Burberry
267
nhuố
Sachsen
Mí
266
Húc
1862
##tun
Lố
CSM
##oll
MX
##mé
Kimi
rự
##escu
Hummels
nứa
Niệm
Kill
ICT
melanin
PDF
MLS
thiu
Sandy
Aki
khuy
pri
Rita
Cent
APS
Residence
kien
Kazu
##ici
##tit
Cri
ngáp
Giêsu
hỷ
Moreno
##imon
Herald
GBP
MIT
Bach
nm
Consumer
Dhabi
Display
##ÊN
870
fla
Abdel
##LXD
Sandro
Maj
1836
##ày
##ulosa
##OÁN
Yuki
Scan
##kk
432
Quanh
024
##Counter
425
Py
Hezbollah
HÌNH
Nicaragua
Stuart
##SL
##hae
Gur
504
carat
Ván
##oxy
Kre
Lắ
Roth
Inspiron
paparazzi
Memory
MPEG
CBCS
gẫm
##ghi
Graf
Đak
Kro
HSDPA
Luhansk
Werder
Tiễn
Hoảng
HSC
Mina
##VA
call
Alexandre
Beijing
Saigontourist
1848
ITC
##amin
viec
ak
##thu
##hiềm
##mond
##RR
##hart
Andaman
Barkley
windows
Ent
Connor
##obo
Doha
ppi
##oái
##FD
Planet
##virus
Quen
##hip
SI
đác
##eve
1863
Hựu
ZenFone
Oc
Nhuệ
Sập
Rubin
Tea
Tamsu
Shinji
##uddin
##ial
##PO
Wy
##gger
Dì
Jesse
SMA
##780
tuyen
Rwanda
Borneo
Medi
Namibia
Reyes
Miệng
##med
Icon
##gent
Sum
LH
fe
Gừng
ngoa
##px
Yulia
1858
Evan
POS
toạ
ngùn
ghề
Cortex
WAGs
Omega
MSI
Lot
EAS
Aqua
##abi
##lav
Angie
Fly
##sam
Beautiful
ĐƯỢC
Magazine
Christmas
Three
##nat
##BB
Epic
##say
253
##ime
Fel
ngoi
Rec
Bild
Pacquiao
chửng
cosplay
##phu
##hausen
thiển
Hủy
Chirac
##xim
##uge
lết
##kara
##edved
##pong
NEX
chề
vót
Rem
Rus
PE
color
nuô
##rent
Chocolate
Geographic
Visual
VCSC
Money
Morrison
pat
309
Liv
1600
##NV
Bung
281
##wald
##fit
ngụt
Ville
Beverly
Noble
##OW
##clo
##pla
Kiêu
XPS
Roh
chường
Kiss
##aq
##VR
NHK
Ôm
đùn
##rini
Vuitton
##ocorro
Nhuế
Hague
Need
loẹt
RA
##HA
chờn
##media
dả
##lau
Dz
##uni
##fin
##burn
##tric
Bibica
HỒNG
Radeon
Eagle
IJC
Shea
center
Prada
Rum
nigri
bim
Adolf
Brescia
##EM
Fortuner
alpha
Grow
##ucci
Nicola
Hypo
Prandelli
Mitchell
clorua
Alexandria
book
hói
Command
323
Whit
DRC
neu
ski
nhộng
Spi
339
Mes
Bristol
Mozart
Satellite
Safari
Dawson
Jared
Rằng
##êm
##mag
trớn
##nell
COM
Leptocer
##arth
##atta
Nộ
276
##mber
283
##BE
TRI
Hối
294
nhản
##uỷ
Maru
918
##GD
533
KCX
Bui
ebank
Duke
Moo
Goetze
##LT
##cea
##isha
##570
Marino
##ilo
##gs
Caracas
Herbert
##lc
##rv
tè
351
hieu
VinaCapital
Potro
gòn
Đâ
Bag
##ophyllum
##dé
##erson
##igan
kV
##ector
##lane
Kern
##bok
Lung
##chev
Ảo
##pre
##cell
Rodrigo
Clooney
Đuôi
Qa
Yama
251
Phàm
##now
##late
##LI
565
Vis
Manor
xơi
chịt
##sser
Kou
Cabaye
sủi
Nhượng
##102
Frederick
##ulo
##buk
Rốt
070
Pyr
lua
##nom
Bartomeu
Clijsters
crossover
Rivaldo
HTML
Huê
Richardson
Maxi
Lep
##lyn
##jet
Bai
Mix
##alo
575
chíp
##edi
476
Vujicic
Complex
Palomar
Walkman
##bl
ehir
After
BN
395
##andi
CMC
CNC
Zaha
##rot
IM
##tif
Pioneer
ĐỘI
Nhổ
NNPTNT
Suite
Đầy
Beau
Ada
Hyuk
VCD
##anta
##lem
Cala
nghiep
WP
505
Đáy
share
Myrmeleon
Aga
Kylie
alumin
Maz
major
siê
Chase
lipid
Axit
DB
Penn
nghiễ
TFT
##chuk
##hana
##PT
cóp
Transformer
##ebe
Hiroshi
Maldini
Sophie
Samantha
Chuông
##cum
Duc
mega
Aden
Sud
Christie
Penang
DF
Wo
Lưỡng
Meg
##rb
Et
2022
##ingen
SME
HẢI
Wireless
Reggin
##IO
BBQ
Psaki
Sonic
Liberia
Vinci
have
##uột
lợm
Tản
##she
Coffee
res
mề
##kra
tp
jpg
##ươu
Holly
1853
violin
CNet
##tran
Lost
Marg
Xế
##hard
Ernst
Toulouse
Perfect
Dolce
Hulk
dó
##atuk
Taw
Grim
##dina
##chr
rệ
lủ
Bent
Bala
tào
Hermes
liềm
Francesco
##bury
##ấc
Citi
##DO
mode
1838
TA
Shoigu
rượi
Romney
Luka
Hưu
Schi
Cast
trịch
metal
##uể
##rei
Slav
Edgar
##cter
##dian
Phà
Lebanon
plasma
Kaspersky
Rong
Wol
##sport
405
nhúc
##hoe
282
##430
##iano
Steno
##asi
hye
##ndon
##LienVietPostBank
Schleswig
Jeffrey
khiễng
##bell
gá
##Com
Yết
##etto
sap
##istan
BH
##BI
Zan
Atlantic
hatchback
CHÂU
Merc
Sn
RON
dử
Boiss
##yat
Jeong
##tem
trảm
slogan
Alliance
Nin
Holstein
Maine
composite
Hector
##AU
exe
##phyllum
##roc
##ony
##tics
Sk
667
hĩnh
caffeine
vông
DX
thoạ
cave
Mách
##RE
##saki
Dựng
Fisher
##atti
##als
##bata
##rn
chác
Chán
##sty
Nebraska
Orleans
Avakov
lin
Pteri
##gl
xéo
##icornis
Flex
Tripoli
##hiko
##culata
Kee
thóp
dv
demo
rói
##ild
OECD
Pizarro
Verizon
Tegra
##EG
##IE
Sup
usd
Ek
Heidi
##luk
##mex
Challenge
rớ
Hus
##rano
Ass
leuco
##yeong
Dứa
Trezeg
xõa
Đĩnh
giadinh
smart
Window
##QG
##lb
##íp
ur
Radar
Tục
##HI
##dt
318
Russia
Riv
##ration
1881
CAN
CAH
Sweet
Pattaya
##dle
Sabeco
Shyn
Haiyan
Kirk
Montana
##bes
##lio
354
Poster
356
Pers
##jer
Coventry
Rebecca
taekwondo
ria
Elaph
SJS
Lucky
Quát
Kamen
##play
##cs
Sán
Bac
787
##dem
Hwa
Chad
Glasgow
VAMA
Woodward
Zhu
##205
lã
Eee
##ated
##eil
Copel
nôm
justif
349
##plus
Vedan
frame
ứa
277
Sant
Annan
Azur
Vàm
Gốc
##then
chồ
Chua
December
Hoffenheim
TBKTSG
Dublin
Lức
0902
Tyson
##tula
Lepanth
Myung
Gióng
629
##hun
Pom
##lene
##640
tưởi
thớ
##tara
##osis
MBC
garage
##ssette
Premiership
Vitaly
EM
EL
##kka
Coleman
##yna
gamer
bịp
za
##ppy
Motta
1840
Kla
Beo
bra
anl
Lance
##130
##taka
Schneider
##AO
Phra
##not
Falcon
##vol
##insky
##ctus
Annie
LC
Burn
sí
Lyc
Clinic
SLR
Child
Wai
goi
##yana
##iso
lể
Fitch
357
ĐK
tuoi
##gos
flo
##plex
Café
Fighter
Jerome
logistics
WWE
nhép
KĐT
##isi
##321
JP
Thùng
##dou
##lian
nhàu
313
Bod
lien
Lie
Action
Benedict
firmware
Landmark
skill
Minzy
##borg
Hou
KFC
Hannah
##otto
mĩm
372
##nae
Wilfried
RMIT
glucose
Fiesta
##post
Short
Louisiana
riêu
khoẻ
##OT
Close
Gate
band
1857
Ras
Dicran
Desktop
Pfalz
Vucinic
ASUS
Screen
Macbook
JVC
hùn
Zoe
Bắp
Lego
4032
##mate
Jura
PMI
Oleg
Gross
Ceh
Ivanov
Nadella
sồi
Fantasy
Madison
Watford
rubella
Rheinland
Pala
muồi
##lder
##ột
phò
585
314
ya
998
##point
Zor
Adelaide
Abbey
Gorilla
khảm
##LD
##OP
Kir
Major
DSC
408
Cro
412
reg
##inho
tetra
Lồ
ok
tele
##urium
Guide
Sala
Alam
Alcantara
Turkmenistan
idol
Đới
515
296
##MW
##hee
##tico
Buck
##acea
hách
Pascal
nhúm
401
Dâng
Dra
##và
Troy
QLDA
Zhou
When
Oil
##mund
Dawn
Khen
VASE
##sonii
##216
Adel
##SR
Qi
##mov
FF
##hei
Rasmussen
sapphire
Corbis
Khuyên
Alain
nớ
STT
##bby
##ăn
534
##slav
Koz
Fr
##wang
##esia
Io
##ulum
Yes
##87
hoen
HAP
##ark
##erry
##iệp
Glenn
##enza
##wing
thuc
##Me
Milk
nigro
Hyori
January
tĩu
Broadway
##333
cặ
Hoá
nải
Cạn
Bran
Asa
Liber
ste
##sic
Phiêu
Reed
##nea
gàu
Coast
##ych
Freiburg
Phỏ
393
sơmi
virut
Boot
##hot
Sci
Rene
##HMS
Wisconsin
Hiroshima
##rita
quỵt
BXD
##yra
##ente
##gli
##gni
has
Plo
GR
##list
Giê
Phàn
9999
GO
BE
ANTĐ
opmart
richter
Pardos
HBO
Chibi
##mol
##gma
Accord
##odont
Nolan
094
road
AGF
TTO
Rafinha
UBTVQH
Côte
##store
##gens
##pay
BTV
NI
##imo
host
##otis
##ovsky
##flo
Sca
Loạn
Prague
Omnia
Vaar
297
##ars
vnn
Kyle
##tty
##cine
mem
##888
##uốt
aw
##tie
google
WiFi
Energy
Herrera
Rie
SGH
##pie
BK
Ain
##assi
ace
##azi
Kazan
Somme
Ts
##dorf
##stre
##TCC
Yoona
561
##enia
##bbi
Raonic
GDCK
eu
##lva
##uộc
oxi
##pura
Sz
Trừng
port
##MHz
447
Cleopatra
Slaviansk
Invest
đăm
Hui
Melo
Trứ
##akov
Spe
##maculata
##anova
Baden
Gall
Georges
1877
vv
Connecticut
Futsal
Navarre
skinny
hên
Casino
##sko
Motion
Alexandra
Party
her
Choice
RW
940
##eira
Hut
Buk
rating
##160
##sawa
Duff
Nottingham
Cantona
SBD
Cưỡ
Cavi
Horn
##ocarpus
##cen
926
##ès
rộp
CHỌN
Platinum
TNXP
##tag
##ellus
##PE
##lini
##zz
Gustav
lè
VB
Nikolai
chọ
nằ
##ubi
Oánh
Genesis
Kiệm
Mân
Jacobs
Victory
##tani
Xả
Ớt
NGUYÊN
smartwatch
PGBank
Sven
816
asp
##ender
CQ
##180
##301
tùm
Lis
hand
699
Morris
##bir
Gram
##oizumi
##ère
BÌNH
Thaugsuban
Flynn
Eddie
proton
giup
viscoh
##003
##flu
##morph
##SX
Oslo
Tol
##ible
1844
##rill
##emon
Goetz
Bug
Edinburgh
THÔNG
Kiatisu
Kingdom
Wesley
Platy
TIẾT
methyl
##skin
Sid
##arat
Saga
##580
sun
lia
##shop
Pure
ghim
##tman
đĩ
Lloris
Mátxcơva
Tweet
##thal
970
Social
##num
289
799
Cash
##down
##ture
1830
Alfonso
corticoid
Nippon
steroid
Santander
DHG
LI
angust
Cỗ
his
Mk
Path
ngổ
Papa
##oki
Sher
Symantec
VietJetAir
Lynch
##toria
##maru
diem
Mick
AMA
ber
hau
sỏ
##manni
##leri
Swan
Maison
DOS
##asia
Patricia
1854
tăn
Mahmoud
Hongkong
thây
Robson
Friends
##540
##103
SBT
Hacker
##HO
Xoa
##aza
UNG
##cz
Chartered
nũng
Salvia
Uttar
Horse
Babylon
Our
Gaming
##Net
1872
##dere
Clement
##ond
##telis
Digi
gon
##tol
oxit
##lica
##cam
Aleppo
Dioscorea
Gilardino
MMORPG
huệ
Kum
##raz
##acary
quằn
##glio
317
SHN
4033
HK
chien
##uang
##pop
ATI
Wook
Paula
Aya
##phyl
##dl
371
Chiellini
Pamela
Yar
Dustin
Quyển
Kl
Brooke
Emilia
##amide
805
ji
##ears
Canal
this
Lars
nườ
767
Etienne
Llorente
CỦ
tech
LT
Services
Ichi
Chiề
4558
##gata
Bada
##born
##iza
##esta
545
Gracillariidae
Sói
Fujitsu
Bullock
Boca
Pon
Nur
##sana
Anthic
Fen
TIM
Shen
Kil
##tari
Fle
326
Sukhoi
trắm
Toshiya
091
Metz
##olin
343
##core
gout
Brun
TI
dock
Merlo
##280
Bụi
Jia
ngoá
Miya
Vall
Map
##rg
##hen
Six
Gabbana
Jupiter
Gartner
Sophia
Điềm
Levine
IPv
##odia
Gồ
Khoán
Amb
##ades
##420
Ars
Roi
##boy
##MX
BI
khuân
##aud
Canberra
FedEx
Gandhi
Corolla
NTP
Primera
##ppe
NEC
Tước
##ược
1280
Iz
##watch
sal
##carpa
Tac
Griezmann
Novemb
Gallas
microphone
##ophila
##501
franc
high
##phora
Petit
90152
Massage
Bắn
##esa
##tino
MBH
##nya
##udo
Gong
Tian
Look
##pix
Bet
pet
Quên
Indo
##gol
Lux
Clarenc
Stegen
##999
socola
##rgo
Julien
Kala
##240
##tepe
Vitali
dòm
Enter
##litz
329
584
Stella
##rae
Aka
##XD
Viagra
inh
485
DXG
##yar
##ais
stream
##ÓNG
Zam
enzym
Nốt
##thia
668
Koch
PB
##codice
Wel
Spark
Greene
##Co
Bậc
Pistorius
Soạn
ngăm
Giồng
quạnh
BVTV
Khẩ
Lé
Nation
Khao
##ares
Stam
Xạ
Kul
389
##uria
war
Holland
##SU
Huffington
Hopkins
Jefferson
Cru
tâu
bằm
##vre
Dana
##yong
##PDR
Form
397
Cyathea
microUSB
Sullivan
Hil
Honey
khè
Hama
PSP
##lent
Derek
phuc
ser
match
Safe
Malik
thui
Erdogan
Sphing
Running
star
##mand
Drew
595
##UI
535
Ves
##dos
Hum
Professional
ĐCTT
vintage
Sherman
##illy
img
338
nhãng
##IF
##owo
##sur
Noi
kệch
Bos
Nev
chổ
Saha
xuý
Barbie
Aster
APG
Fariq
##nay
Kitty
Malawi
TKV
Oleksandr
##lad
Hwan
Malay
SSC
Mora
Soon
vne
sandal
ghẹ
Chuyền
Splash
nhử
huỷ
##ggi
lé
##688
Dre
Ishi
pyr
Dật
Sw
Hemi
Togo
Athena
nhem
##pac
##GC
Ble
627
##bang
Louise
Petra
##ifa
Jasmine
Peskov
XVIII
##tak
nchen
Tell
Only
##FL
##xis
mền
xuể
##cina
404
Mila
lừ
CRT
##grad
409
##tae
##mbi
##rantour
quadri
##nard
848
jumpsuit
Ức
gien
sing
kilo
##ải
Amphi
list
André
Boer
TRẦN
INTO
Abass
808
##UY
##sac
Price
##ann
IL
Meyer
##spe
1851
Cover
Đản
sale
##anne
##board
Sync
Colli
##oensis
BÀN
Deschamps
Strauss
Couture
Generation
##lf
Volvo
Ruồi
phẩy
TTCP
Liền
rufi
##610
photon
sieu
gí
##ẤT
##RD
soóc
##tone
cyan
##yuki
##beck
Carragher
Exchange
Foxconn
Scudetto
##lessandro
Islamabad
Zhao
nẹ
Scha
##som
291
Program
chuong
##lut
Sigma
##hay
##SF
##mine
UC
##NI
Ghen
1856
Todd
Harvey
Khalid
shock
Gốm
muốt
TMN
niêu
UTC
Đác
Silk
tiki
##mie
HDR
Mare
##osia
637
Ghé
Rumani
Apache
Gattuso
Mordellistena
Showbiz
Thomson
TOEI
Norton
NHA
##iller
Lynn
8220
Rui
Court
Lili
##rix
Hấp
899
Zin
503
##yoshi
364
Alejandr
TNDN
Flying
552
THU
##rut
Nặc
Jump
##FR
##ilvio
PCX
Bron
rí
Mảng
BTS
Jens
muc
chun
TĐC
Bretagne
Klinsmann
Ultimate
frazion
Bennett
account
IXUS
##WWF
##uth
##dre
Diane
##shavin
381
vani
gra
Hana
Cay
boots
què
Arseni
Dis
Mundo
##ught
##Cl
##arc
KC
Crassula
UPCoM
Bergkamp
##emia
rắm
zăng
Pomina
boxing
Maybank
Kr
##RF
##itan
Haru
##stin
Total
Carrie
334
Shar
Hoán
##ophylla
Tree
337
##erra
Chử
Nesta
Development
hattrick
Monreal
Trojan
nguời
miss
tv
##ester
##hampton
Spin
373
Sivas
About
##lk
##dge
Stevens
Frei
##fon
Exynos
Ferreira
Burnley
Nestle
ESPN
chẹ
Quoc
##ophora
grand
Chảy
Machine
Lepto
Hur
##bie
##bara
láy
Uber
Tesla
Citigroup
Pereira
Preston
Borini
Jenner
Đực
Mirage
##lash
đìa
1849
nỏ
##tini
SPF
##ugi
Elsa
##dera
##itor
Put
284
khấ
Hybrid
TRUNG
MSCI
Gua
Octob
##FP
Luther
Mú
929
club
Rovers
Palmer
Carbon
Gilbert
946
##DD
##DM
LNST
Cologne
pdf
urfa
gallon
TNCN
main
BenQ
##ike
tuýt
Danielle
##mori
nhố
Calcio
8221
##usta
##aly
##phor
GA
khach
VE
én
##sara
mod
Bak
NBA
Carmen
675
Rh
Duật
1827
Stones
342
gô
combo
Bog
##water
Minsk
##IG
##kaya
406
##lux
##lect
Townsend
cườm
Montoya
Alexandros
##oke
UI
010
But
##ahl
Superman
Beer
dúm
Lãm
cuỗ
##thai
đì
368
Goodi
1852
##ICO
Fenerbahce
Mubarak
Double
Benign
iWatch
Megastar
Klos
Krym
LAF
Rapid
Dale
##tori
cer
Phế
Steam
##arin
Gly
Fraser
nhụy
CJ
##pr
##cchi
##illon
##EB
IVS
Five
##rp
##ushi
Mom
##sik
quặn
##opa
Choáng
##fasciata
536
##nagar
Willis
rua
Cata
##LP
Jiang
Islam
Martins
Alo
Ấm
376
hoạ
Marian
##ryl
ròi
Ngon
Myanma
Illarramendi
Katherine
Nhẹ
cạch
##lou
rợp
Ruben
##ếng
bẹn
626
dis
urani
lúm
##rana
turbo
blazer
Stand
cocaine
Quí
FSB
vầ
His
##tô
##rib
Haas
##ruoc
##lands
tủa
Affleck
NỘI
TRƯỜNG
nượp
Mickey
##kul
Via
Ngao
Vò
Cas
Halo
phới
377
PN
Jer
SEC
Links
Colle
##ifolius
Anand
##hill
Hampshire
MBKE
nịt
NOXH
kiem
Phys
giẻ
Juliet
Nomad
Want
Brother
Pul
ngưu
##rba
Maidan
Giếng
##470
##VI
##ridge
Brit
##mera
##rava
##ceps
Antoine
UNICEF
Berkshire
Maggie
Middleton
truồng
Rhodes
PVF
Books
##768
Swa
Sham
378
##555
##ffer
##kins
##WA
Rivera
Đốt
Mimi
Filipe
EMA
##té
trườn
Arkansas
Blanchett
Soccer
Society
Leningrad
##eana
Diesel
July
Vier
##arius
Emmy
093
sport
Ata
Casio
##nelli
dem
Kings
poli
##thon
501
Honor
Field
##ould
Mate
Allegri
DNNVV
THÀNH
viscohanoi
chột
495
HĐTV
Adiant
Gael
Doji
loát
##rade
quắt
Remy
##song
Phì
FT
Én
There
Valle
more
CM
Arte
Cir
##ement
BỆNH
width
Quới
MAI
system
097
Yuan
##770
##evi
##has
##mini
##TEC
vari
##lick
Amor
##phantes
Brachytheci
Gundogan
Musharraf
tifos
Remix
Edmund
TMĐT
Tip
##bla
##666
##tron
##rice
YM
1846
321
VNN
Dinam
Byzantine
Februar
##mut
XVII
Rosario
##alla
Leone
Tourist
##ija
alt
##berry
organ
HU
xuat
##kat
thinh
ext
Khỏ
431
016
##optera
Sematophyll
Manga
Augsburg
Shrek
##zawa
##ats
moóc
Basque
Gõ
Stock
628
Aeon
Mạo
352
hero
MO
chườ
##iỗ
##kers
Weber
##DB
##race
mún
##Index
Toà
604
##ịp
Sab
331
Philippine
645
##bau
##660
Syzygi
núng
Download
##UNG
##alus
##cera
ED
Bastian
Té
##shot
phơ
Room
##tensis
Dịu
Grad
##BT
Vor
es
##anis
Duong
Georg
##tac
##ake
Lithuania
Technologies
engine
##ofitel
Lar
##ềnh
##rig
IOC
##kip
##phar
Chèo
Ricky
SLS
Schw
Saab
Mobi
##ffi
##cham
##omex
##SV
##dea
Direct
Sato
##rell
##pert
##riz
Oa
Atlético
Bluefin
neutron
Palacio
karate
075
##éc
Princess
European
Samar
402
Evil
##eff
Cory
##agh
##avan
1847
je
Montpellier
Public
Bongdaplus
Veronica
##dex
webgame
##loba
edge
HUY
Zune
ML
Eri
##rno
##GĐ
##ặt
ear
cuu
##686
##Viet
Bear
##ằn
Shot
Vela
Mãnh
Gaddafi
Selaginella
species
JYP
KBNN
dancesport
Forever
dớp
AVG
Vpop
Jackman
Giuse
Beth
##atsu
Dominic
Kot
Leto
DH
##dil
Đậ
Stur
Lub
##ool
Crown
Alfa
##89
##MV
##gara
##gua
##anto
Adi
McConaughey
Ngoạn
Paramount
hotboy
Princeton
Portland
Platini
side
GTX
IFA
INS
Safin
##bey
##lae
life
Hit
##shing
Bền
##ổi
##agor
IFC
##itus
Rab
Hingis
WSJ
Chơn
luong
##hab
xuyế
Kingston
medi
Poll
##yun
689
Drag
##shev
Helena
##iva
Dry
Pit
Toan
nhốn
Dempsey
Soldado
Solskjaer
ÂL
##uku
##raj
Plate
Calais
RO
Khư
Tos
##ader
##arrow
332
##flex
##oya
Barra
Pir
##hom
Zhi
##NO
##UT
##issima
##đồng
Picture
##tner
DR
635
Yas
Pyrénées
Defoe
BVĐK
Gift
FIA
Olga
##stigma
mạp
Rib
##GP
##akh
##zor
##hof
##thor
##style
726
##dee
##hari
##MK
Sche
Dế
415
445
Heynckes
wushu
Subaru
Nakhon
Leyte
Vie
phờ
Lil
games
Eve
##khe
##phen
##may
sọt
lợ
móm
##cord
Station
##Li
Marouane
Lậy
Phìn
##dad
##hon
ck
Lù
Gisel
Lens
##clad
##ved
Stephanie
Helio
máo
jin
Somali
##World
Cambiasso
Spielberg
CSHS
Tortricidae
Olimpico
TNCS
##inch
Alexei
Sak
Polo
Mount
Ore
##nto
##ẩu
Lara
Here
##OI
##rys
##khan
Lucan
##endra
IBV
Bryu
##hethaovietnam
##lev
Option
Carla
IdeaPad
Sauber
Curtis
##eromia
Ruth
##elago
Temple
UNI
##OD
GIA
selen
Wallace
DLG
Wear
Đôla
438
Castell
Sale
##202
##288
PGD
##igh
Pokémon
Heinrich
Compact
Nouvo
##eat
Westwood
Viking
truân
##raceae
508
##ỉa
Koi
Gem
528
##eki
Giorgio
Tello
Sennheiser
Lavender
đơm
##kovic
##andr
vạng
Nang
Homo
Temp
xẻng
Heath
Gaz
##eiro
##537
##teri
ré
Kham
Walk
Nana
##ege
439
##rva
Abd
QUỐC
photocopy
Cayenne
ctv
Oculus
tuấn
ĐTCK
##allmer
BSI
nhăm
Aziz
##ddy
##bos
Ot
magie
Turn
Lor
##PR
BIC
##iwa
##inum
##amba
##stad
McG
Westminster
##ochrysa
AirAsia
##nikov
Andriy
SGTT
Devon
##ijk
##ÀI
##anica
FL
##lano
##kor
##gri
Bath
##WS
##TR
##ardo
##COM
Brook
##eron
Mercury
Krystal
Gus
Samoa
Chosun
Spartak
Bed
Buyer
Tg
Cin
stop
##sul
bôn
##260
Gamud
Driver
Bebe
##etes
##gáo
Amar
##rre
Beyoncé
Hotspur
Khuyết
Triumph
Gwyne
Jankovic
bĩ
Shearer
TỶ
Singer
##anahalli
Ném
VSH
súy
##phin
Cước
##emo
Hood
Edo
##room
Ora
0906
##mod
##obius
tac
##rop
##eme
Terra
pisto
FAO
1845
1832
Nồi
Kirby
Cyatheaceae
HoSE
##jima
Again
##eal
Luzon
Most
##ulin
##uen
##527
Cac
##phae
Gain
Aleuro
##onica
##igny
Yanbi
lip
##inski
DIG
Share
ISP
Seok
Corn
lọng
festival
aspirin
Iberia
Johannesburg
Vargas
Building
SCMP
ZTE
Renzi
Luang
Ural
##app
##7000
558
Tat
Alma
Joey
##166
##hất
giụ
Berkeley
Ardisia
##nius
MG
##stemon
Tựu
##hou
Burger
##idus
Know
Mic
##food
##bridge
Aceh
##rry
414
liệ
##kir
6000
##dara
##agin
Winslet
NHẬT
Hak
##oria
##dz
nitrat
##bee
SATA
work
Youth
Queens
##dir
Chie
##ehr
##ểm
##kam
benh
##sine
Prot
Mrs
Aurora
Floyd
robusta
ĐẤU
Claudia
VoIP
rảo
Clara
##xy
##hall
##lex
led
Farm
##ại
Record
CLA
Sabah
Angelo
đảnh
##kun
Abkhazia
Adventure
PhoneArena
Turchinov
CNVCLĐ
Curtin
Pou
Materaz
Cookie
UX
##bad
##ulatum
##yal
light
##HP
Tap
##eles
tweet
Pao
Arroyo
Carnegie
vedette
ớn
##saurus
Greenland
##LĐ
Suga
PGA
gamma
Piano
##lani
##ines
QS
363
##phus
Ruộ
Peng
Heat
Iris
Engel
Dực
Seth
##PH
##liv
0903
Pier
Aus
##Lo
Boom
kW
##eca
Adreno
riềng
Tavares
Tizen
Novaland
Kwa
Mod
##uzzi
Ướ
Arsen
Becker
Bại
Mey
Cọ
Investment
Xát
NAV
Brachy
young
##combank
thiet
Phelps
Pterolophi
Sensation
Abidal
Barclays
Phăng
Biz
##In
toanh
mỵ
##evo
##rav
flavo
##ục
##anov
bẵ
Feng
##onis
##ours
shorts
##llah
##002
Ec
asen
Triple
Kok
PowerSho
##dquo
Khampha
Angry
Mother
SW
Andrey
bluechips
Levy
Đòi
vạc
NET
##XX
##uber
Dos
Bonn
##dov
##smith
Birds
##rub
##nte
Rhine
##eder
Dru
Yeltsin
IUCN
Wolves
##VIDIA
Metropolitan
quyệt
Friedman
Masia
##ood
##hak
Lì
##8000
##oài
Bata
##enda
mor
Chester
Holding
ngoằn
Cristian
Rise
Dermest
Kuntze
NGÀY
Tencent
Normandy
VŨ
Cuông
Sankt
Alicia
IPU
Úy
Đạn
##idine
##face
##CK
##cid
WD
Niger
##hore
##cula
##chis
Ryo
Evo
Cardin
Uli
Audrey
Habenaria
Karzai
Kieran
SƠN
Tasmania
Basic
##680
cheo
vón
##ril
bờm
##IV
9000
har
Pé
##apura
dật
Dec
banner
Def
##és
##rama
Sav
##umsfeld
346
đươc
LEAD
thãi
Jonny
Sergi
391
drama
Đù
xahoi
lati
Oxi
Mann
Nhữ
nhũn
##Gb
Guo
Perc
##inga
Nikolay
mer
##own
##soni
##Post
Verge
##nina
mus
García
NGƯỜI
sôcôla
Ascend
Crazy
Cohen
CĐCS
Zined
RAW
465
Ơn
Hair
thuy
##TG
##andanus
Dahl
##MH
##endorf
Xót
Dê
Shim
##yotr
##hand
##ghe
Wolver
Aristolochia
Sheraton
Ương
Hobbit
ninja
melamin
##stylis
search
##DX
Bowl
##por
Hack
Kota
##isse
Plu
##nier
Lap
Sởi
##bic
thăn
##opsyche
MOBA
AGR
##dung
##eru
##cut
tóp
##space
Cand
VJ
Maicon
Mariana
686
motor
Doo
admin
Rush
##rest
##ệch
Mason
Murakami
Direction
##lob
Fury
Rhynchit
Acid
##171
##Max
832
##oby
Casey
##MD
##233
phúng
##kia
Garay
Stro
Salam
Chlor
429
0904
Hao
div
##OB
092
5800
##site
Almeida
Cibulkova
Huntelaar
Raider
nhiếc
Aleyrodidae
Hed
Rò
Johannes
Engl
hum
Xy
cache
##BD
Mind
Mama
##window
Petrov
Vita
##vey
##né
tor
Hepburn
carbohydrate
Lithium
Freedom
Harold
know
##BĐQ
Rê
neon
Lưỡ
##lite
Pays
362
tré
##tronic
Aba
Cherry
Rut
VSD
real
##kl
##ticus
##mae
020
##270
Shia
Bes
Aleyrod
Marchisio
DATC
Vietnamplus
##oti
##hâu
##dat
411
Grab
Into
##eros
Vent
patin
576
##lass
balo
##ussa
##vás
##mash
Tổn
452
1789
bua
Diaby
##ryn
ILO
Escape
##ifi
hormon
coli
Flower
##ularis
dậ
Ev
Grass
Cúm
##CG
##hri
chơ
##nut
Heartbleed
VSIP
Switch
Chloe
Nigel
Thaco
DUY
réo
Some
Mangala
Huong
##GI
Stick
1855
##pul
Xoan
Ola
beo
Rub
347
Pong
875
ngọ
KD
##sher
##eja
Vivo
Half
Bey
vaccin
villa
Nine
Boo
Riquelme
Bahamas
Lucia
iMac
Kaiser
Blechn
Đoài
##sea
Carney
##mphoe
Gilles
Kuznetsova
##ulf
zh
##kos
RB
##anza
1837
##440
Weiss
755
##cip
Ngừ
Alc
##XHCN
Haiya
##rite
##560
Holt
##bek
##reg
Grigor
##ingham
Cic
##mee
Cincinnati
Herzegovina
Partners
Cyper
##760
Bright
##MU
##wl
Ailen
Zeus
Kyu
Antonov
##oj
Xavier
455
Iwa
Leuc
##awa
##365
544
Boon
Ree
EPC
Lit
Cyrtandra
Cathay
##DV
Nại
##113
phuong
##ỡng
##wee
##unda
Tee
##cana
Castel
hơ
Jude
Jos
##auer
##spin
quắ
Đọ
Stanislas
Kuyt
Eminem
##dell
Eriksen
Dendro
FS
419
##road
341
Ath
##Mark
Báu
Meng
##mei
Xì
##rro
fun
Rot
Alps
nd
##ỏi
##gie
Bohemia
TechOne
NTNN
Pant
Rupert
Solar
Musa
##iformes
power
Phác
Sushi
uột
##ities
CU
Melani
Sap
Dog
Tù
##ater
##To
2500
Neptune
##thus
tip
Sảng
##sina
RM
##ivo
Pastore
Cost
Tánh
##edes
361
##loe
369
##izer
Buffet
##uti
1835
Blo
Soldier
##roma
punct
kiwi
Mắm
Front
Yaris
Domin
379
who
##198
##loides
##810
1802
Nặng
##pina
##neri
Sakho
##fil
Dome
CDC
Gao
bluechip
Ngưỡ
AIR
1753
Rhyacophil
kiề
Industries
Joaquin
Sassuolo
nồm
Beirut
Buttner
Lombardia
##schi
Rep
Enfa
xẩm
lag
tulip
Rác
VIX
601
##vus
dello
##onium
Comm
group
1843
##STC
##tura
Urb
bur
LV
##matic
##lepis
Crypto
##tata
Zoo
Match
##tay
0909
BẢN
Bangalore
Dwight
Manulife
OpenSSL
barangay
paracetamol
suckhoe
Graphics
Hemsworth
Sandwich
computer
Emerson
Hilar
Serra
Asset
Deli
Ami
Suc
##ndo
Hab
##868
##lensis
Mika
##rensis
Soyuz
Yasukuni
Blackberry
Oto
AAC
Finn
mid
327
Gerald
Mitsu
mili
##erd
Lum
Jackie
Herman
Chal
ôxi
Oak
film
Meli
Theron
sulf
##cing
Bomb
xụp
cuội
Columbus
Maurice
Truong
Stress
urê
Children
Vbiz
687
melano
##tiv
##mur
##ario
Thấp
Kiwi
Cub
Status
Kama
1833
##rida
359
1842
##èn
chiền
Fab
Cis
Delph
Prima
ul
Milos
elo
Daimler
Kallstrom
acoustic
##ider
rần
Ruud
##guchi
huê
Upton
##Craft
Amata
Hau
##ering
Hem
358
##ald
##HTT
Pang
##miya
Orient
Rosen
##LF
Raw
Airline
Songs
529
Genève
Yahya
##hé
Kalou
Pixar
Portman
Radi
Schum
Rào
Nile
Tien
##nti
Sit
Heinz
##glia
605
bỉu
##cili
Minas
##bah
Baba
##VS
Panel
mỗ
Sheva
Stern
TUẤN
Venezia
serotonin
Friesland
sopcast
title
##rê
##matsu
Ark
HL
rỏi
Đấ
588
##fic
Ox
Flores
húp
HKD
Gustavo
Thunder
##rium
Race
Ped
1400
Vietstock
Pap
DE
##ơi
Wojciech
PLXH
##von
jacket
##zal
BigC
Alto
##dent
Tir
Franc
Font
##oen
Rein
rị
SF
##mak
Viêng
##vision
Rhod
##lal
Kana
Zah
##GG
Fowler
Herbalife
MediaTek
Gionee
xoạc
brachy
VPCP
Đoòng
thẩ
Huda
1834
Lehmann
calci
##aci
LCG
##lean
Male
##erman
Danang
##nig
Ngón
WS
##ecta
lớ
nicotin
Joshua
Zak
##bella
Wifi
Gwen
Mino
##tim
##punctata
##ations
Zika
Hira
##cola
Nero
##tian
Cut
##140
538
Trade
KIS
Osvaldo
Versailles
Yomiur
Havana
Rostov
bicolor
penny
oăm
##TK
TMS
table
428
##trix
Gyrin
##QT
air
##doc
Rami
##àng
Ez
suc
xị
##glish
##gang
Leonid
##lett
Shira
Rhein
trạc
549
Kab
456
511
1820
Spec
Friend
##lade
Bermuda
Robocon
Chinese
Knowles
Glenea
khuâng
Chaplin
##tsev
##smo
Duty
Medic
kip
Cyclo
##HN
Dol
Stark
OH
##him
##rax
Nest
##iq
##kut
##inia
Rei
Exp
track
##rlize
##Mo
##ulia
Belgrade
Guillermo
Schwarzenegger
sandwich
Gomes
Braun
##quet
Sườn
Luk
rĩ
suit
Cornell
Quinn
Oka
##udin
Cul
##TĐ
Scho
Savi
user
##talk
##rật
Muk
tieng
VG
Dys
##jon
dr
Ramon
nịu
Nestlé
Ruiz
white
Chiên
##gren
Naz
##ids
GX
xạc
1824
Vale
olive
##onic
##phia
Ness
##5000
##ugo
##188
##Star
##410
##lines
rúm
##anthe
##uva
Lừng
Electronic
Piedmont
Revolution
Brandenburg
Ismail
Bravo
Peterburg
Hyatt
zi
##health
Janna
##utter
Reader
##ượng
Opra
Scar
tag
Gent
Corydali
rose
398
lar
Ear
##IX
##zol
##rgi
##718
AEC
Nemo
Choe
Mestalla
Mirallas
sitcom
Kobayashi
Mannone
##arge
Khoe
sua
Sonata
416
##khi
Ono
Think
##Land
695
##vac
rk
##390
Lex
##scher
##boo
soan
OMO
nhụ
Leopold
youtube
Gardner
Tennis
VTF
Bụ
Ritz
##670
Axel
765
Barnes
pull
Castle
chlor
MAC
hard
ir
Inn
Mig
Eck
##yad
##BM
##1200
##iospyros
Endomychidae
Sampras
rữa
Kendall
Wellington
Moselle
first
Federic
Rag
##789
##brunn
Dara
Geum
Usai
348
##ddi
403
bot
DAC
##serv
##leb
Winston
Bab
plan
##sip
##nj
##KHQ
Lejeune
Hànôịmới
Kastamonu
Polystich
XUÂN
Butler
WA
Doroth
TBA
Mura
XM
trằn
##enii
LTS
##fla
QC
##TY
AQ
##rance
úa
BIOS
Kof
Mít
##cao
ACV
Strike
##ocha
lact
##lander
heli
Bơi
##170
353
Sidi
César
Raheem
Ếch
digital
folder
Salon
hỡi
Pis
##hớp
Hận
##AV
MSM
##camp
Stream
Chryso
##ethyl
##BO
Paper
##wu
##TE
Stade
469
Vac
mòi
##borough
##leigh
chằn
cal
603
Edison
Kwang
TSKH
xệch
##dec
year
Buy
##nzi
444
PX
Puma
city
Knox
427
##haus
##lion
VD
turbin
Ori
Simone
527
688
khom
Fiji
SAS
Belas
mol
Anderlecht
Monash
Bishop
Andersen
Nash
Nhái
##123
mangan
579
Mog
##stis
Europe
##rima
##rer
795
Avenue
Beckenbauer
Braunschweig
Huracan
Mecklenburg
Nurnberg
Quebec
Schuerrle
Yushchenko
Protein
đẵng
Superior
Lấp
##cino
Valve
Cen
##alan
##tio
Track
Wer
##ẻo
##RV
##sb
Chou
Mỡ
##Re
Doug
Bour
##910
##UN
##ér
Shane
Community
Tobago
HKbike
BAFTA
Wolfgang
LĐTB
Artemisia
GDTX
##egan
Grove
retro
Nacho
##read
ms
Cox
##104
##tea
##egi
Echo
Lena
##ít
Lừ
##bian
ém
##nders
##ions
##azar
##LO
Dino
Presl
##uadalcanal
Urumqi
Gunners
Phèo
##igera
Dọn
417
##abe
Porter
Lucio
Champa
UHD
##ảng
Mobil
##366
Hyp
rocker
Chén
Eyes
Drake
##tton
##home
ngỗ
##athan
##ugu
##ency
Freud
Este
Hermann
Carnaval
Extreme
Maserati
THỊ
Nantes
Enzo
615
Downing
Kẹo
##xit
Nic
##omorpha
Spy
Ptero
##hco
##wad
8000
ITF
##saur
##pping
##xen
##luc
Ess
##tera
##dition
Proto
374
Crescent
Deluxe
niềng
Navarro
upload
Dixon
Bailey
ethanol
TTCN
##ants
##than
Rudi
Bose
Mổ
Kumar
##uổi
Bony
##enstein
##WC
##wat
Wing
Lav
Allan
##oor
##530
đụn
Đụ
Economist
Malcolm
nựng
Ricciardo
handmade
Oliveira
Collection
Armani
Britton
##mul
Leg
SBC
os
##nning
tot
##fun
##234
Marty
CMT
Toshi
Conan
Ask
##part
##ủa
Ping
Lak
ALC
Homs
thoang
Gardens
##ssey
DeGeneres
JPMorgan
Galileo
Chò
Topcare
##KTT
hác
##fel
Sầu
Henrik
Mỵ
##rug
##cles
samba
choán
Extra
##hầu
Sé
##Game
##collis
##omus
TF
Attil
Kitt
Natasha
Reynolds
Aman
KI
##950
##shaw
Paradise
CIAT
hoắc
Amp
##toma
publ
Mission
Kichi
##TQ
meo
Lund
PVFC
Messina
rờ
##etic
Natri
Tím
##ruồng
##leu
Slo
Michi
040
422
Bianfis
Gizmodo
Gorbachev
Infiniti
Vientiane
remix
CBCNV
Fukuoka
Bertrand
Marathon
Cortana
##thin
Arrow
##odor
Augustus
##GDCK
##tail
##illian
##eryl
##111
##spar
lét
trê
Elie
##840
##igne
Andrews
##Tr
##ỡi
1831
lit
Mauro
##View
Cogn
Desailly
Sorento
TouchWiz
Zagreb
Wittmer
Quint
Morsi
UH
Finance
TANDTC
##ière
Senna
Anzhi
Cắm
##rơ
##oste
Glu
Mpx
Hornet
##ibo
Takeshi
oval
##ML
VDC
8888
Ép
##sdorf
Centaure
##pco
##tyl
Lept
##hid
PAN
Disk
bis
SBIC
Saône
ICAO
Defense
Lightning
Roadster
LONG
hetero
Shuke
ORS
XXI
Nil
##erz
Hách
Cord
woo
Thom
gạn
##ampa
Apo
##EU
##thanh
Basil
##âu
##fone
##kei
FE
##rotalaria
Qwerty
client
panchayat
chum
##lift
446
Elo
Kak
Operation
052
comple
##rua
609
Gum
banking
##xx
thuôn
##real
##loss
Ngọt
sụ
Haye
##dry
Abhis
Gazzetta
Heaven
Kaliningrad
ximăng
French
headphone
Streep
Burkina
Middle
Ngải
Faso
##mannii
Đuống
Still
##icki
Acti
Siem
Hue
##inensis
Gì
Hippo
##anthera
1839
##456
995
xém
Level
##lose
Alexandr
Gos
##over
##oche
##awan
ge
Nik
Print
CAD
Koro
556
Catalonia
Malouda
Taekwondo
VIETNAM
centimet
champagne
MSBS
543
vẳng
##peri
##ppen
Lazar
KTM
##168
##MG
pass
hyun
7000
Denco
##rif
##tier
612
##Constantinopolis
Butterfly
KHHGĐ
Murdoch
Rotterdam
##ỐI
##gers
Wendy
Churkin
iOne
LĐLĐVN
censu
Vida
Broad
##pennis
Alone
##oper
##398
Vibe
Blume
##guer
##itas
##arte
##self
carotene
BBT
Sands
##ified
##mato
carb
Mutu
Michele
Tàn
Bautista
Packard
Rennes
Jian
Canxi
Mister
##vr
Torre
Rosie
GameK
HBC
Witt
012
Zheng
start
##kura
##rock
tằn
Sem
Change
517
##KS
##nari
##stadt
Agri
Flag
##kho
Chuc
Assassin
Jelena
Nagoya
Zambrott
nakedbike
Mauritius
oằn
Sig
Hanks
Coleen
##ury
Ổn
2200
sound
Chap
##pora
##oidea
##ws
Sec
khảnh
Help
Ill
Alta
Tomo
##zil
Dmitri
Propertie
sunrise
Magnus
Joyce
Heroes
Jules
Ngực
Mills
Ivo
##fire
##VNCH
silic
Markets
Bok
Miconi
Nobu
##wak
##tius
##urd
##cauda
##rung
##525
##bird
453
Gatsby
Paltrow
doisong
Leslie
CNRP
elastin
Suisse
second
bấn
##ières
RSX
sach
##take
Yves
nạng
Malaya
##any
##yas
Dro
1806
##rier
##wara
889
Woody
Taj
Pine
Melan
Select
Mustafa
Rainbow
Cousini
Brighton
Biền
Shore
##enbach
##Sport
WMA
HM
##939
Navy
Cisse
she
night
Pip
vat
ek
Heather
##berger
ny
Mask
##kt
sk
get
Gulf
407
##tig
762
Tou
##GH
##asse
##buri
ASP
Exxon
Effect
##EST
Peace
Giò
Satoshi
##cornis
Private
cri
good
Bakel
User
##PD
map
JCU
HE
477
Globe
##etus
##sche
LO
kar
CCN
way
##orge
rim
Martina
036
Dida
Kristin
ocha
##hurst
##cil
Destiny
Hylaeus
Redknapp
Trinity
Takahashi
Baidu
Sailor
Luigi
##sdale
##mana
Sẻ
##umba
peso
Kamp
##mys
BĐN
Burke
##sby
Snap
##chb
Masha
MR
Device
Emile
buộ
Amir
##erton
Ams
Loki
##yaz
##rog
Zai
Hammer
HX
##RM
Baron
Caribbe
Blaugrana
BNHV
background
##zov
##bio
Vivienne
Iconia
fra
Disneyland
TMZ
PJ
Sút
bẽn
##bou
Chon
Salman
Aj
##ization
Mango
NE
##MM
gar
##iche
##teen
727
Vir
Katsu
Pru
Diplazi
Feyenoord
Securities
Septemb
Sphagn
Tbilisi
Halep
##NY
Barton
RPG
##ateway
##ature
Oriental
##dow
Bống
Keira
Jai
Agi
Andes
449
Mich
##Card
##lv
Ach
##dog
ACE
Kangaroo
Riyadh
Stankovic
CHLB
Creek
##uco
Bận
##loc
##love
VX
lìm
Sanyo
##force
Josep
Xấu
Scot
Donna
##199
##409
OM
##lax
Ful
Kunth
##photo
##ating
FO
gôn
FPS
##enic
Lênin
Backstreet
Barrichell
Makelele
Parkinson
thuộm
ươi
Seatimes
ze
854
Eugene
Antioch
##culus
Eg
##bun
NSC
JJ
luộ
##fall
Sasha
423
Brien
Bosch
Moura
##olu
Bẫy
Jag
pole
##resmo
462
disco
##hito
##iễu
##jor
Dub
Electro
Fil
507
Lombard
ER
Mariupol
Pulitzer
Tillandsia
oestrogen
Bruyne
Morocco
Hubble
Đoán
Signal
##trac
Gabon
Aragon
Works
Toy
649
iphone
002
Soái
mịch
LM
Viola
Ngó
##verse
Tex
##alware
Pac
##yeon
Vá
Meso
##ặn
##obe
Pos
##walk
Buồm
Lặp
Sáp
trâm
Raphael
ngoisao
Meazza
Fleming
Nhé
Pierce
add
miều
##Tech
epi
pharaon
rỉnh
##LM
Neri
523
Eriocaul
tet
##dang
Lốc
Hypn
##essa
##RCC
khà
ICC
##hoăn
Khay
##bac
##omer
567
Tộ
775
Vung
Leonard
##ovka
Meri
##GM
lympho
ĐKDT
Danube
Abel
volley
Naismith
Milosevic
trấu
black
##996
TCL
Tools
GIL
##MN
EB
1810
##OU
Centro
Boz
ROE
Hò
##là
nig
502
##NET
Aspidi
##amensis
Glo
TOP
##olle
##issi
##spermum
##nau
cord
##olis
Tròn
##790
Aegis
Verratti
Panamera
Buckingham
Ilbo
Hoãn
DotA
##bps
Burton
Randy
Demo
Rằm
thốc
##lima
RNA
Blind
##BV
Giul
##sian
##ebi
586
Sên
##BBS
##maculatus
stra
Chimarr
Jade
##TX
##lma
##dula
##lap
436
UBMTTQ
Botswana
Gervinho
Kharkiv
Republic
Sicily
TẤN
Vissan
Bellamy
DP
524
Diarra
##của
492
uẩn
Johns
##sica
##onda
##UP
Oreo
##lette
Galiu
##588
##cworld
CNG
596
Franch
##opy
##275
Fuku
Paz
Ship
Erin
Sko
Agu
Xay
557
##etra
##rman
441
Universit
Bucharest
Nickname
Pardew
Rakitic
Razr
Khalifa
NPK
##enny
Swiss
##ndra
Thấm
Hayden
Africa
Mả
Allah
Melia
Nạp
Equ
##chet
##uana
Wah
Xôi
AIG
Monde
##unga
VIS
Hetero
##riya
344
Murci
Scandinavia
Carthage
Paralympic
Poseidon
SXKD
Ubuntu
Yersin
Teresa
Vinafood
##uji
Esc
Triện
Circle
Thuỷ
av
Pach
1100
thaek
030
##City
Forte
Parc
cụp
531
1828
Tiều
##ilde
488
554
Inca
##door
Fah
##rain
##AZ
##ddle
Scud
##foli
Moratt
TTK
##960
chips
774
##idion
##glossa
phay
##acci
Khế
Lada
wall
Gibraltar
Seymour
Gallery
622
Ridge
Wolverine
##plan
Quạt
Colombo
Lilly
514
##oom
TDH
##apur
##squo
Til
Mons
cur
##860
Chel
##TF
##bana
Pyi
##giri
prop
Mats
Bú
Kami
##linger
725
open
Gap
Task
Perdit
Sik
Abbiati
Ahmadineja
Fansipan
baodautu
Captiva
Danwon
Friese
Presley
##OK
UBS
##ưởng
##gil
##ller
Saka
055
##lept
##eka
387
ruy
##phila
AIP
##zuki
sep
##ady
571
ICE
Xứng
##rror
Mez
Elliot
PIN
421
##401
Log
##710
PLO
##IỂU
Eindhoven
Pattinson
Koenigs
fashionista
Dropbox
Parthia
Mosul
Push
Akira
lẽn
iốt
Abou
##iceps
sám
Coen
##wy
xắc
##cun
Vinasa
##lita
##lah
##gues
Voss
Rocket
##ár
685
Sòng
##roides
Isabel
##ór
Savo
##sys
##nio
Galli
##ndigofera
Sinclair
Gasquet
Remote
Silesia
Bradford
##517
Vip
Matui
Yorkshire
Charm
Sino
##olic
VK
##corn
##rientes
MMC
Natali
lepto
Bow
Igna
521
Fei
Wald
##dun
Keeng
003
Palo
##ely
Watts
DNS
Yoko
Angus
##ezel
oliu
khạc
Zamora
OneDrive
Chapman
Kiệu
Vanity
Edwin
##cott
het
Vik
Basten
##stedt
Kick
thieu
mart
##rup
SOS
Fine
##sou
437
Bổn
TĐ
violon
##zek
##uv
426
ON
Boyd
List
Wiel
##young
434
##cept
##rau
##folium
Verde
##poda
Exo
Anastasia
kl
##utin
Assange
Eugène
OPTION
Ptilodactyl
Shaelyn
jailbreak
Hewlet
touchpad
glauc
NP
KHĐT
Betty
Đẻ
835
Naple
##VP
Jess
Kình
Crush
##yria
##rado
722
QHD
##lius
##428
##aid
##quel
##chal
Brin
##388
##essen
##Mb
##SK
##825
CTS
##estro
##ING
##nev
Brain
Alberta
loai
##ctive
448
##uki
##omma
Monchengladbach
Riềng
chụm
lithium
Maddox
PERC
MotoGP
DINH
Horizon
Selina
KKT
Dodge
Hamlet
##bala
828
Archos
048
Pere
Wide
Pachy
##190
bl
Barr
##vik
kin
##nami
az
##nex
BQT
Have
786
Ayutthaya
Davos
Ezequiel
TEDI
Charente
Amer
KTNN
Denver
Wedding
Eski
Kant
CẬP
Hokkaido
Kệ
1792
##XP
Ket
Semi
bau
Gali
find
VW
##taro
cacbonat
##bourg
AIA
Kato
Grave
624
Standl
Volga
##208
##bium
Kis
Vóc
Zhukov
Gấm
còm
##bak
##tano
Wake
##uit
##nei
##820
##tsuki
Guard
##ECO
VAS
##bai
Helsinki
eSports
Emanuel
Thrones
Netanya
Paulinho
huề
index
vê
PDR
Sue
##celli
Boyle
##rch
##opterus
amino
Logan
Manisa
Uẩn
##BĐ
##UC
##tien
Quest
938
TNA
Yuna
##zak
Stefani
##502
Sisi
Peters
Ló
##ucha
fast
##ró
Anatoly
Nacional
Nobita
Ecopark
Gloria
Raf
rích
THVN
##ắn
##kol
Rup
Chul
panel
face
Slate
Gián
548
Xylo
Molina
Natal
Gaston
Gone
##880
##ross
GH
##right
##399
##owie
Nhắ
Gul
##oleon
Davenport
Icardi
Salvatore
sũng
Tokugawa
niken
Coppa
rùm
Bổng
Lori
##cephal
osin
Josef
Keys
578
Cruze
##thos
dollar
##evsky
Damon
Sepp
424
Sting
Lài
Cele
EN
466
voice
Uran
Rok
chệ
##trong
##eaux
Trăn
865
GSP
##PF
Schwarz
##nate
Attelab
Before
Where
Galliani
HĐLĐ
Karaoke
LÀM
Râu
Spir
Hớn
fashion
gap
##tria
Holy
##zaki
634
##aeus
##ative
##hanoi
##oshi
Vỡ
Cebu
sec
095
474
Ella
Brig
mẩy
Nén
đị
Silla
498
Vinmec
Australasia
Katrina
Leighton
Merrill
Bridgestone
Sistar
NGUYEN
seller
##eung
AOE
Haf
##ridae
rền
Tet
Dem
468
##nitz
Giant
Nêm
Manche
xè
##lino
472
597
Drop
##406
Too
##bong
Duck
##issus
##ocarpa
Jupp
##189
##laris
##cot
##zii
##agan
Khodorkovsk
Custom
Hiểm
hockey
##holt
Jewel
xẹt
Pix
##yk
886
##DMM
NM
##737
cacao
##269
##jia
921
Artist
532
Mobilit
Jing
tenui
0933
735
Chuồn
Sever
##eger
##ƯƠNG
Archi
Gott
fil
Goran
Corinthians
Punjab
WWDC
Castries
Livescience
##bour
Vinasun
##rew
Amin
Hawking
strong
537
##tium
##rni
1826
##ccio
461
Lốp
##bao
##nez
pp
Bene
##394
##onensis
##óng
Liang
##eolus
Tách
##HCN
##Life
0938
##oise
Atkinson
Bismarck
Crawford
Infinity
VietGAP
##ÒNG
##ẠCH
##Mart
Ngỡ
Clean
Timo
CCB
##vio
Holo
##lix
577
##vs
##DRC
Ext
701
##censis
ESP
under
##368
BHD
486
##review
083
Brooks
Kush
##thong
418
Capitol
DŨNG
Griffith
Zeiss
Summit
Duncan
Spyder
Rolex
Ellison
##stream
Gogh
novel
##osperma
roll
Futures
##zumi
cra
##pine
##share
Trail
##kur
##cion
589
##sville
##gana
665
##orpommern
Mueang
league
ôliu
Dominique
Rapper
##naga
##cheon
Unix
516
CoV
LPG
Bốc
##inder
fair
Championships
522
Corr
##akis
##ĐBA
##aru
##tou
Braga
ké
526
##Drive
##ACE
Tomorrow
Alvarez
Lleyton
Return
Sapphire
ASEM
Nishi
Webster
Romario
887
##sheim
cuong
HƯƠNG
Edinso
Sái
Diplo
Biel
Klaus
Thê
BTR
##nca
574
KTX
##basis
##ride
##ellas
Kaz
442
##uter
Tè
AE
##clin
##rep
##195
gracil
##rận
Fol
##MR
Tala
Heavy
KẾT
Svetlana
clutch
rupee
notebook
##One
KHXH
Vifon
fake
tuan
##cô
ller
Rễ
##ival
Other
##944
954
Imperial
##craft
Tể
##ACD
##290
##cit
##pati
##ười
##fini
Nhắn
Vlad
1829
##cari
Palau
945
##eba
##thra
##PV
taca
Pleurothall
Alcatel
COUNT
Gujarat
Nairobi
Panathinaiko
dộng
Đră
Wizard
Truman
review
Flight
Gothic
base
Kita
boa
FCN
763
Pana
##hui
##830
Gore
ZX
##tang
Đòn
Khoát
pap
##sone
Prem
##tau
##bé
Imp
rg
Almagro
Hoạch
Kaiserslautern
López
Vững
Winfrey
Forrest
Sugi
Arturo
Morton
Cathy
gộc
##zie
##olejeunea
Clay
##elii
##ying
602
DĐ
Athyri
Leucani
Mesa
Thames
Sedan
chap
1812
Bôn
Kuo
##DH
Serge
Mela
whi
Check
Karp
Blackpool
Jazeera
TOTAL
Inside
Berberi
Isabella
ACAR
Vienne
542
##107
uric
##mad
Fame
Saviol
Vivian
##mala
nitid
ger
Every
##ske
Champ
Sinai
##378
##rose
647
ii
MAX
##astic
##109
##HCM
##dzi
##ún
Silvestre
limousine
KHÁNH
Dancing
argent
Newsweek
Tribec
##GO
dặc
##roi
506
##este
Ginger
##olone
food
Kaya
##see
064
Chớ
##wai
Lone
Vince
see
##ẳn
##dson
473
##oir
Atta
##ejo
##chester
Bonaparte
Gutierrez
Penelope
Performance
adapter
Aderus
Eastern
Xerox
Phêrô
Odd
##ốn
Salix
Knock
Oise
QU
Mép
##arta
watt
Pù
Keita
037
gracilis
paper
Riot
dual
##uya
Rá
##nem
##blog
##itis
đí
Strong
##KV
##sir
##ullah
478
rec
##EI
519
ngọng
##pf
Muse
Dynamic
##isch
##cortisol
Leipzig
Vertonghen
Mecca
Evening
Celeron
Wagner
ĐSVN
Yasser
##iopsis
Pok
Usher
##sworth
cin
hoac
481
PPI
##oloma
Ska
Amen
##589
Pô
Mị
##master
Koo
582
##chum
##tima
##sec
##oye
Olympics
Sym
##eak
Nees
Anime
max
##reus
##hyun
454
Fang
Casablanca
Gsmarena
Laporta
zombie
Sarawak
Garonne
dopamine
Kiền
##thorax
##raja
Anura
Winner
Communications
##gawa
Bec
Nadu
Dame
BNP
MDB
##roz
##otte
quyet
met
##wear
##fred
##osoma
##eren
##ils
##china
##727
Aksyonov
Ambrosio
Elisabeth
Rojiblancos
domain
##dze
Westlife
Cipu
quẩy
follow
##bry
##AH
FOB
Kursk
##mét
Hien
##ification
Sainte
Sus
##vill
##agawa
Kidd
##mari
VHG
##dag
orum
##899
##ène
##etyl
705
##wit
KO
PTI
Anonymous
Weidenfeller
LINH
GIANG
Yeutretho
HF
Felicia
Natale
##9000
CNET
LLC
##isk
boi
##ắm
Lorde
Dyer
Idaho
KHA
Lướ
##olia
719
Reese
##para
Ngọa
##yuk
Said
##mot
##cik
PTL
##ecki
Guti
764
gằn
##idea
##thyrium
Ik
mun
Pseud
Drama
##ieu
Kata
##oyama
tỉm
Goethe
Holiday
Schuster
XpressMusic
Engineering
Stepanek
botox
Sudico
project
ngh
TTGT
##eber
diên
##oire
463
tron
##ophorus
##elles
##494
##GF
Rhin
sếu
Shark
##huong
566
Rocky
623
PD
##istic
Jab
VĐ
##105
Information
LĐTBXH
Sissok
TKCN
Odyssey
Jaeger
Fogh
Buc
457
##chilus
right
jack
bel
##owitz
Thuram
##raw
065
foot
Thr
396
##dum
##cken
##oderus
Aub
##rob
##870
##186
Dunn
Kry
hel
##có
Ortho
##noides
Pisa
Cyprus
thammyvien
Liquid
Watanabe
Lindsaea
Bourbon
##rammitis
đẩu
Learning
##caulis
Panzer
phẩn
seok
Dận
Mand
JPG
rốc
big
Riley
Efron
##cano
##cara
1801
Sana
Labs
766
##brand
##538
968
hoả
Shine
Devil
##yatt
Schr
Muell
Cleveland
Gallagher
Mkhitaryan
Rossoneri
##siana
Mauricio
Cristina
Justice
Fusion
PLVN
Medina
868
1088
##fus
Niêm
nhông
##MF
SAV
Elise
##pogon
974
Unit
Loc
Sành
ngoè
fulv
539
meta
##GV
##620
845
nhõ
##asso
##azzi
toác
Hasan
mọn
BGTVT
Grosjean
Montolivo
vectơ
Benteke
QUẢ
Monitor
##wire
USAID
Medical
##rek
##uja
##where
581
control
hanoi
KGB
DWT
##459
789
TNO
Điên
Kors
Lew
##git
Cruiser
mợ
##ventris
root
##nax
Pam
##NDP
MIC
Mauri
##work
##rông
Anita
085
CVT
##aldi
GTS
##lice
##erol
Branislav
Jauhari
Scheffler
Yvonne
talkshow
Vasily
cookie
Britain
Foot
##iere
VKSNDTC
Tatum
Church
cream
##IR
Virtual
Freeman
##511
##cey
Mạ
Saba
822
Dido
Leigh
##439
##759
rubi
TAC
phớ
##ebel
##ube
##ando
##film
Đờ
zing
518
##ulu
head
midi
##kina
bina
Ref
GMC
Stalingra
chloro
Vinamotor
dõng
samurai
SYM
PowerPoint
Picasso
Holttum
Pretty
##ẶC
Vicky
Muội
Teddy
winner
Albany
Radame
if
hão
KLF
Lago
##oil
Musical
##dez
##êt
Oan
451
Juniors
arm
Ante
##lance
TTHC
loe
##naut
President
484
cuc
##rá
##ussi
##VC
##flora
##La
Đai
Tò
Bouchard
Ghềnh
Guantanamo
Isuzu
Phanxicô
Pochettino
Raffles
Samurai
Micheal
Salzburg
Kutcher
##lant
Joao
Koval
Thayer
Plant
tuốc
Harman
##747
Memo
FAT
ăm
Andro
xuề
##hil
trend
riu
Curie
##lez
##cks
CBCC
Fritz
ring
Conrad
##enet
##133
##inii
##dul
gluco
Bazaar
Resident
sticker
Sherlock
Nagasaki
Minogue
lac
NHƯ
Borg
Acura
Gaulle
##ION
Aragones
Glee
Albi
Luo
IDG
Singles
Como
Mandy
Helm
mùn
##elinda
Rao
##EV
Sharif
##ISA
XT
quyen
##itta
Suez
Opti
Ita
lès
Cava
Momo
##works
##xora
Ike
##ryu
##gul
##739
##iving
##526
Limnephil
Hargreaves
History
Rodrigues
Shiloh
platy
androgen
ITEM
Contact
Yukos
Cilic
Zhong
##culi
Xuan
##vant
Bướu
##ĐĐH
Ngừa
##ONG
steno
Train
##oji
Belo
Cold
##girl
##WD
Academic
Neill
val
VNR
Piece
482
607
943
dề
Amal
Kung
Inf
Rea
##sima
##garh
RR
Cine
##ÙNG
##zig
mien
Burg
Logitech
Netflix
Steinmeier
OPPO
Windsor
Gerais
##hotep
005
Fresh
YP
Thấu
Comics
Mbps
Lỡ
slide
Micr
rich
##mall
Johnston
##ippo
##rito
Loch
Poe
apple
707
##ọp
Kiyo
CG
LCS
TRA
##elen
##stle
##NL
Application
Confederation
Gnabry
Hemingway
YÊU
bauxite
Spilosoma
Louvre
Reims
Memphi
562
Vitalk
Montella
##opo
##éri
Nhá
896
toạc
##rar
Nikola
796
Saw
Guan
Hến
##rbi
##erin
587
Waka
661
##mona
##kowski
##chat
Nicki
##Jet
low
Ctrl
Laudrup
Ljungberg
Rodríguez
Shutterstock
Fergie
VietNam
Highbury
Pamuk
CHXHCN
608
##geri
Lưng
BĐ
##787
##cial
Grosso
##phanes
##Nm
ringen
Rox
##anka
ôsin
Kud
Sienn
##pun
Frey
##131
##cade
##anu
##tik
HEC
ATR
##sex
GCN
##ái
house
Norte
##KC
563
Burns
Aung
Vila
Vắc
Cối
##cons
Job
##blo
##hững
823
##fl
Bernanke
Caledonia
saxophone
Kẽm
Alcado
Nutrition
Hummer
judo
##nice
Cheney
Bursa
CSCĐ
Satya
Season
Witch
Ipad
975
Zay
sign
Nghèo
hol
##249
VÀ
Citr
##uce
Tụng
Pá
618
Kuro
##orio
##ĐH
pala
Shiva
Islands
1815
Choo
Thù
Wiki
tango
doan
Nept
pose
##code
Cun
Saxifraga
##ochi
Das
Rho
CONCACAF
Hannibal
cricket
elegans
Sumitomo
DigiCity
PureView
Phillipines
##aming
Olsen
Museum
Tracy
Xiang
gMO
VietnamPlus
Romero
##668
Pixel
655
NYT
Mận
##3000
Ayd
##meria
Fro
##hav
Xinglon
NGO
Rouge
Ethan
MMS
Diploma
Large
sền
843
##rosa
Base
momen
Lega
CMS
Clari
##iscus
Ito
##rani
BCA
##alpa
621
##lí
748
##vara
Capri
Ansan
Ley
##spir
##359
Heidelberg
Pazzini
Sheeran
blogspot
component
Jermain
highlight
tiqui
##gramma
Xổ
Economics
Pồ
##saigon
toét
Booker
TCC
Gunn
##scope
##llata
1819
vina
Prat
Jaime
Gho
Mito
Milo
##wong
phầ
ec
Clash
Bô
Nie
833
##latus
Trọn
CHF
Yao
##rens
Agrypn
Begovic
Besiktas
Coenagrionidae
arabica
hiphop
support
Knightley
Ottawa
##nath
##olzano
487
Rashid
Yeni
Moussa
Frost
##xxx
606
Ferrero
micr
Gyu
877
Gina
821
##lineata
Ngẫ
##529
phé
715
##ularia
Fields
##VND
Hank
##live
479
785
Paras
Phồn
cùn
Yue
##chang
Bender
493
509
Tek
Davydenko
Divergent
Eisenhower
tomboy
Iduna
Patriot
ngái
Giuộc
sul
Apps
##saka
VNDirect
Kvitova
Doyle
##211
BG
Hamburger
3411
Thuỵ
##ques
025
Theodore
SET
##ận
touch
Ná
##esto
##cephala
fluor
##mmar
Connection
Lions
Thani
Torr
##ppel
##Mag
Rebel
Monta
Pantil
##ối
bớ
##ịnh
Madam
Cran
##Express
Sonia
Sib
bõ
Pick
xép
##duhoc
Cún
Blizzard
Selangor
Sputnik
TienPhong
EDGE
Eintra
ĐỀ
Canyon
Faroe
Nhóc
giè
DOHC
Alli
TNMT
##tao
572
568
##KH
NAS
nhạnh
Pei
##cie
##206
palm
##pyware
##roth
##etin
flu
##318
Houte
##134
VNI
Boost
Shaun
##iev
##ogi
ol
Konstantin
##zhen
Bastia
Thoan
##ocephalus
1320
##olepis
1775
hypo
##gno
##ygo
Macintosh
Ortega
Assyria
INSEE
Heirs
Guitar
Magath
Nieder
##reen
Oy
##266
483
tạnh
##vier
##roll
##abat
##fir
##marine
Nak
Lơ
khự
##lung
##rve
Stre
##rgan
layer
Aji
##ât
Jor
##tris
Sihanouk
Chernobyl
Château
SHINee
THẢO
Traphaco
Zubizarreta
rưởi
Punk
##densis
753
##sas
chét
Yohan
745
Wein
Higher
green
##rec
Catch
793
##some
VAOOO
1822
Sad
2100
##stal
##hack
##740
Hít
Marat
Baptista
##xxxx
##ffa
##aldo
Corre
##shen
815
Uche
Crowe
553
Bub
757
Curve
Lở
##788
##rane
Rung
056
Bournemouth
Kluivert
Lindegaard
Miroslav
PHẠM
Lexington
Papilio
lycopen
qHD
Wick
Sendai
Colon
TTTĐ
Chea
Romelu
NTL
Thailand
sõ
Henrique
Sungha
Khinh
Forum
Erich
##ckle
Kri
##èze
##446
Jas
569
Lùng
Era
##ARC
Graph
đư
ATC
##liga
Kyi
##121
Korean
CIC
##sek
##431
Gout
Towers
838
tank
##arina
##erina
rằn
CLS
Beethoven
HỘI
Juergen
Panorama
CHÍNH
Rushdie
Warszawa
Pharrell
Anhalt
Beeline
##ylo
Airport
##haru
Frontier
toc
ỉm
Freddi
Sét
##iers
Valentin
Shab
GMA
Sally
##rella
##698
##ded
Zar
##522
##quest
##illus
##533
##ewski
nẫ
MRI
Cafu
OC
MN
672
Sera
Kwan
Burundi
Quinvaxem
TÍNH
software
Zombie
Gulbis
thegioi
about
Consult
PHAN
UBKT
Panther
sẩm
Board
Audition
##test
program
Hangul
trác
bện
##cius
States
##736
##idan
Renee
##uôi
##TW
##785
Cordob
Teng
Karab
##script
1300
Jacky
Eup
##ớm
##uche
FP
iso
##nac
Martha
Filip
Lindl
598
Donovan
Kandahar
Plymouth
Taarabt
Barbados
Errani
Ecnom
methanol
TASS
Richie
Faker
##ambo
Transit
Carlsen
##lach
Faith
##ský
giua
##week
huý
##235
Ngưng
Spur
##447
683
Tie
Sharma
##nguyen
boss
##otta
##iola
##sted
Mố
##PG
SKT
##aster
##ghan
Mordella
Hyung
Vat
##hánh
##holm
##sae
Agnieszka
FinePix
Stekelenburg
Khéo
Lorraine
Account
Galicia
Valery
494
##ilema
nit
Minaj
Raven
Kiểng
##lier
Secure
elip
Carson
read
Chow
been
Boh
Anglia
mal
Blanco
##OV
##elic
##ialis
Finals
Gard
Kuni
##meter
573
Cera
046
##EO
##716
Vito
khẩ
Bạ
##abilis
Navi
##elmis
Aly
459
##arch
0908
Penta
nhom
chạ
##grave
##ulatus
##kovsky
Dementieva
Fulbright
Philopotamidae
kinhdoanh
Carnival
Diablo
Taeyeon
quặt
Kishida
Henman
Ngầm
Isner
Scotia
989
Valentina
Kalas
Khảm
Poy
Moro
Ghe
##114
Guill
design
##yov
Hoff
KM
##fasciatus
681
mú
##707
##rino
Livingston
##bula
CHO
##vez
Valerie
Kosta
Oda
Fio
##llar
iP
Disco
Oli
##ểnh
##ango
##hira
Sheen
Alessandra
Shaqiri
Amelia
into
pra
hyper
751
IMP
1001
Lí
PSI
Atl
677
Baill
pil
##Ho
Yin
##angensis
Tank
talk
Gianni
##mans
Fam
OIS
HLA
Heid
Bei
Moment
Khố
Niko
##orth
##eun
Kirch
Chronicle
Idlib
Masdevallia
sportbike
Hemerobi
next
Trữ
NTT
SQL
debut
Animation
UAC
##ofM
##bei
955
##lithi
749
##uồi
nor
##ọng
Stereo
##urcumin
gày
Haden
Cabo
Brandon
Oo
0913
Reap
Hare
Mahal
Kut
Sacomre
fur
Clattenburg
Vodafone
nilông
Leopard
broker
Hamsik
Ifeng
Garner
khăm
guộc
Dja
##bum
Lamb
Gaul
eye
Nê
bob
##tsov
##edia
Lagos
Flow
678
Akh
##resco
551
HAR
Batt
2222
##vari
Gale
phuy
##UM
##nur
Crew
CAO
##268
##dhi
##524
Daud
Peak
##friend
Chặn
##hegioididong
Cesena
Deulofeu
Gudjohns
Locklear
Schmeichel
Trierweiler
Electrolux
Yamamoto
Legacy
Animal
##science
carton
Khấu
MỸ
rương
crom
Viềng
Vectors
ry
soạng
Baja
##212
Giơ
NƠ
VM
##poo
Bard
Wanda
khoeo
Daniela
##766
Living
Jaya
bụt
Burt
##brook
##694
##213
hee
anten
TY
AGP
Tiin
Baltimore
Kathmandu
Lagarde
Essex
Krishna
Oricon
##hawk
IATA
Ralf
webmaster
Guyana
Rèn
Tomb
Chev
bull
##ná
##ional
Dash
Moran
Sanders
##535
##278
GQ
PSB
##wall
Nôn
Swing
VCF
Trek
1700
Yorke
##minh
##otus
##ệm
Brett
pick
##262
##sternus
Nã
Rog
Dunga
Mốc
541
rặn
##kham
Brahimi
Hispanic
Latitude
Ptolemaios
Registry
Sirigu
Envy
Geoff
sequin
Evian
Taiwan
Ef
thuồng
Nava
##ostachys
##this
546
Anwar
##esis
Hear
Ski
Norther
##alba
Romance
Army
##avo
NBB
Aveo
Destro
Mast
Hansen
##stance
##azole
##phat
Bamba
##ctis
Techni
Marche
##pers
##suit
crassi
##755
master
443
613
Maker
ngòm
Ngá
Thethao
##ICE
##393
sg
Sleep
Khrushch
Hebrew
Liechtenstein
Montgomery
Thermage
Yudhoyono
Lorient
Teaser
Magi
##enni
AIM
Amur
sac
Try
Giôm
##strom
##cephalus
Mine
##358
##iens
Asiana
lum
Walton
cộp
HR
##769
Passal
Chic
ISC
TMT
Georgi
EVO
##kle
##hur
Trớ
464
sky
Tẻ
Tei
want
##bike
Suu
##reau
Rù
Britannia
Monfils
ĐƯỜNG
##IỀN
Barrymore
Nhộn
Olsson
Daisy
Morales
TRANG
Prosop
Creed
##ĐB
Theodor
##855
Avril
RAT
Gigi
##duk
red
beat
OCH
Ott
##mere
este
##bov
Khuông
##tok
##oux
NPC
##rho
Lamp
Bakar
##owa
Give
##lib
also
##ande
704
Zola
##IẾT
forum
Michelin
##Times
Alf
Rak
##latostema
Acoustic
Ekaterin
Nastasic
Spiegel
Suleiman
remote
Chambers
Pharaon
Lilama
Bongdaso
Palawan
Fatah
Gafin
Associates
kaki
Jac
sko
Thanks
tuất
##lep
772
Speak
##IU
Dollar
##chau
Ela
Dé
##icata
Chrys
Huyn
Bojan
MPC
741
497
##cafe
SAP
Cant
ple
PRO
Advance
##ocoma
Pitbull
ĐẦU
nghễ
oxytocin
Haswell
Fernandes
cardigan
District
ngoắt
Quattro
Dickson
Abrams
VINA
DUNG
ERP
##hani
Saar
Dona
QUA
vùn
two
659
##naya
##1402
WI
Dee
Thính
##ousse
Logic
Khô
Allo
##hayne
Baku
##sano
##730
Civil
got
Matrix
##skie
Viera
Nơ
##riff
##ones
##vila
đườ
Bacca
##ciano
Wade
##carp
769
Giặ
##373
##masa
Seol
CAR
##telli
đé
885
MegaFun
Youzhny
##chroeder
Zopher
Huntington
Saturn
Carletto
Carrera
Things
##focus
inches
thên
Roe
Miracle
##BR
Yukar
##ellum
Zach
turbine
583
##gat
##esco
Sphaer
658
TBC
nhin
Cube
##OX
##even
Dina
Mok
Lines
##490
##FTA
662
709
##liana
Tec
Avram
##wel
Mazz
Mili
##gae
Inmarsat
NHCSXH
TTATGT
Verdasco
Countdown
Beyond
Midnight
Vitesse
Pérez
XSKT
Nakamoto
chễ
##obryum
Christophe
##786
##otes
##đi
Wait
##quer
##loo
TNC
##ATE
Movies
Tora
##dep
Shir
844
Lith
##mbri
giu
##980
669
##659
Meo
ep
Dán
Wilde
Ade
099
##oelioxys
Dresden
Marriott
Primavera
Vietsovpetro
service
Sebastien
##748
Corona
Planck
Uma
761
wiki
##AST
Gianh
Xiển
##ruz
MGM
##128
##page
##how
752
Vasco
##kare
kr
doạ
##zơ
10000
##lz
##gai
Stru
McN
##mming
##ás
##ipo
Vig
##rtz
Ronan
##olon
##tami
Vovinam
Worldwide
ibn
chuôi
section
LẠ
Gerhard
##deco
bike
word
penta
AVI
##sao
CAC
ATVS
Colo
Chandra
##etia
##path
Thien
489
Perse
##mmel
##waco
##629
##kari
##nema
##etsu
##zhi
chieu
##274
##286
drive
##ĐK
topic
##aye
Corvette
Dolgopolov
Giovinco
Macquarie
Paribas
TVXQ
penthouse
##cinodendron
Donadon
Meizu
HÀNG
Pagani
Cuoi
Tav
##ADA
##club
thien
only
##costa
Conioptery
Barrett
##cking
##757
PFA
##laus
Pratt
Mud
Luci
Mio
##lun
Zip
Came
##lys
##hung
Saving
Peta
Cày
##poly
Saul
Perugi
##485
##183
##dda
##lori
648
##global
Thờ
##990
##767
TO
##data
Cars
616
##mbu
##lata
Rockefeller
VnReview
virút
ĐẸP
Pennetta
Greenwich
giự
Karachi
##big
DƯƠNG
##hyphantes
Rowland
sậy
Teo
##362
Bờm
##hisar
Omo
laevi
Duran
Kost
##yman
##6088
nhắng
MF
##ếc
Pig
Hani
632
862
##729
IPP
##hre
store
061
##opol
##ratus
898
Host
Nikko
##mouth
743
##igli
sì
##898
Linnae
rttemberg
Signature
Belfast
Esteban
Warwick
NACC
XE
Rommel
Seagate
Timeline
Suất
kieu
VL
PTT
AFTA
Sahin
rắt
592
Willd
Molt
##lana
Rhode
##odidae
##hut
Elop
Khun
##alin
##386
##lde
Babel
855
Argo
Phách
Miện
##esse
Hú
##map
##hardt
932
Disc
chá
Hale
Paint
##agua
3200
##tet
##475
Reich
Erzurum
Fiditour
Pearson
trẽn
Stosur
monitor
Evoque
Jagger
Debora
Bahia
birdie
bấc
EQ
heart
Rộ
LAS
dúa
Mancha
1814
##uyen
##ortula
963
Xám
1813
##tions
Yam
##abine
##255
##loch
##nil
Normal
Campo
Highland
yard
##flower
788
##yin
##nian
atro
##hênh
Vard
Kras
Attapeu
Griffin
Slashgear
Cecil
EEZ
Rudolf
Yellow
Rosneft
version
Walmart
Leandro
##toxin
##BongDa
593
thiến
##emba
##guin
Hardy
##BH
CIS
##UR
Tyra
Trĩ
nia
soul
zero
##155
héct
VSC
Yel
nghiem
1805
ngồn
prae
Nhím
##IST
baking
Fry
Hul
##eza
513
##HE
DPR
Royale
IG
##237
Marsh
Aleksand
##sario
##eke
##977
##INE
Feed
##214
Escobar
Fitzgerald
Industrial
Madoff
Vriese
Werner
Violet
##vall
GF
Fischer
Exmor
##toides
##fighter
Minute
Fou
found
849
Robertson
##LU
##vita
##hood
BAR
Fai
Đuổ
Goth
##llus
##hime
Xie
##rage
##tala
und
##rati
Wool
##jana
##tiva
buc
##spo
René
Samsun
nhít
##IỆN
##search
##scape
Bứa
GIỚI
Lancaster
Vyacheslav
Fleisch
number
Personal
plutonium
Trading
Riise
Vicem
Trier
Chol
Wien
Yaz
Điếm
##RNA
Sướng
Str
Ballad
##keri
Leng
##podium
##uw
yeon
ET
kịt
##load
Wor
##828
HIM
Dragons
##CĐ
##tree
##sbury
Tarn
take
Read
##fly
9001
##andro
Kuz
##305
CHUYÊN
Qantas
Syrph
mayonnaise
thũng
Aptech
MẸ
lứt
ngoạc
sea
Massimo
##lund
Tot
Ying
connect
##iense
Cuong
##cchio
melan
plus
Paro
Diệt
##zhou
##elman
744
hydroxy
Ellis
Spo
##cyclo
##sami
Wester
##GL
Facebooker
##sque
##YT
038
##rí
##pher
KQ
##HĐ
Croc
842
##bread
##Touch
Gou
Shige
polyme
##lead
Misa
##OHA
Eleutherodactyl
Gemadept
Hispania
Tumblr
Vampire
Brittany
midcap
Heathrow
##richomanes
Tumkur
thõ
Jenkinson
Irene
Chromebook
Philipines
##658
##689
Camaro
SJ
1788
##169
falc
Benny
##stine
Ret
Saleh
##esti
thóa
SSL
player
Hernan
##Link
759
Rumba
##kim
Vil
ICP
Nora
est
Build
Deb
Cr
Nori
##279
##arum
733
Kav
Rubi
##Mobile
##olit
##325
901
Emil
Schiz
Moe
##yard
##118
Nhạ
##tomo
1818
Photography
BIỆT
Buffalo
Giadinh
Source
Terminal
Phận
##oldenke
##enilson
Nghiệm
Titanium
Ngần
Hapro
khênh
reset
ướ
756
POP
Fear
PCT
Rust
kun
Wanna
McM
Lade
Bobbi
##395
Konya
##512
##838
##mitsu
##OE
Rossiya
##scu
##you
##UK
cule
SPT
3925
Mett
803
Tale
##rhiza
Borri
rón
##897
##INA
##995
##hock
##tero
##387
Moi
656
1440
Atlantis
Azharuddi
Bolshevik
Drukpa
Fognini
Tamiflu
Gigabyte
Ingrid
Andorra
Muộn
Nakamura
Shirley
679
Wanbi
đước
Travis
giầu
Mandarin
Launch
member
##orodom
Nghiện
GMP
##yet
Tana
471
467
Hoe
##arov
496
nhiem
858
##536
choạc
McKe
TCCN
##owice
lằng
##349
##agui
936
959
##493
Bara
##558
##ifrons
DTS
##arma
##258
plug
##496
Cable
Herb
Louboutin
Shimizu
Sánchez
hiđrô
sterreich
Hâm
Mistral
Yokosuka
Geoffrey
Toledo
0912
Pale
Shannon
STDA
iBT
Lopes
##307
Haz
ITAR
zip
Seasons
Dak
KIM
Rhino
Dep
Brock
##207
##echi
Penny
Pau
Legends
there
676
054
Afro
##opal
Popov
Rhe
##lodendron
Rand
Gaon
##ggio
Pena
##ITC
Frances
##oza
trịnh
##lain
Kura
##ncourt
##HQ
##ZF
rn
##438
DLP
Springs
Berezovsky
Matthias
Tenerife
Tomahawk
Vladivostok
mirrorles
ĐHQGHN
VINASA
multimedia
Gosling
capô
Yamato
VOA
##weiler
need
##linus
##zana
Narita
##nant
Cheong
Hac
Rubio
Leptodactyl
Pulis
BGM
trối
xoe
Thở
##725
##ruk
vnec
696
Hof
bủn
##tax
Casu
##wolf
vằng
cd
Gree
##108
xuong
Lãn
Williamson
##xít
##QC
Arb
Zon
##ẦN
827
Lox
UPS
##ssler
Origin
1817
##OF
Nuri
##129
rufo
##hold
Shake
Study
KQKD
Polycentrop
Rogozin
Wikileaks
target
Champagne
Ander
JavaScript
Veneto
Admiralty
Honolu
Atanas
Hotgirl
Belize
which
Souza
Đước
Preview
HG
##woofer
##VH
Castillo
Trent
##355
Klum
bb
xtan
798
##690
##363
lens
Keller
##112
Kars
Alen
skin
Chico
594
##steiner
tuk
Rud
##ainen
##ová
Gilberto
Ida
NEM
Cỡ
Scapa
Zel
Berger
Gris
##TMCP
##leur
##ướp
PTE
BX
##383
Walters
##Office
##Connect
Hokkaid
Bollywood
Diyarbak
Robredo
Twilight
adidas
VAFI
Ledger
Passport
Nhường
Cavalli
611
806
Passion
##hathir
##yza
011
Schoen
Isla
##deridae
RCA
Kale
Buồng
Stranger
##olf
##astc
##wis
Khuya
cùm
Khốn
châ
##mpel
##stead
Reporter
Bleu
##morpha
Gymno
##667
##neura
Barzagli
González
Maharashtra
McAfee
Nutifood
Wyoming
rươi
Metropole
EcoSport
Elaeocarp
##Kong
Brady
Hanover
Havard
##azepam
PXM
Luciano
Princes
996
kimono
##mua
pressin
DNTN
Sỏi
##east
##BN
LAM
##ments
Cabal
were
Sali
##0000
Mò
Fonte
Row
húy
Sosa
##385
##crista
MAN
gun
##sos
Alien
##kow
Soma
Latino
had
##eko
Lien
Xing
Krul
654
Musk
Antalya
Sunshine
Radcliffe
hirsut
Chopin
Sidwell
Shinoda
CƠ
##iệu
Hav
Rif
Siam
Pác
Prius
##new
FN
Indra
Hendri
##leon
Peabo
##icnic
Zun
##449
Hein
Luta
Brid
place
calorie
##dik
Gulli
##phis
Stephens
##088
Berman
Leh
##chim
Cerato
Brick
Acanth
##408
Sugar
##range
##pedia
##beau
##Share
818
Sales
CHUYỆN
Donbass
Guingamp
amiăng
Savoie
Cowell
Leio
Kolar
##LAC
Flore
true
Ultrabook
CPP
sờn
Kasa
Jenni
##590
##luigi
##rough
Mizu
##evic
GSX
##VO
Trull
DVI
Mean
915
##encia
Guild
Rah
Pilar
##makeup
Cesare
##tung
PHI
just
928
##427
##ál
Austro
##fd
fr
##hli
dũ
##eae
bợm
lock
khèn
782
##kuma
##Ghz
ichi
Augusta
rie
Bianchi
GCSE
Kienlongban
LỊCH
Kaboul
Natural
Kelvin
Branson
1024
Berku
Licht
ozone
Warmi
ATV
##bari
ôxít
Jensen
##bility
Abi
##louse
FV
##wyer
some
##illard
glyco
##cient
Pew
##ucca
Shift
Kira
##BL
Thoá
Nastj
Nickla
##mbra
817
option
Stephani
truc
##488
Saxon
Lufthansa
Thunderbolt
Typhoon
Agency
Confed
Kerber
##carpum
CAHN
Cage
##UB
office
land
vlog
Mayo
VNS
tuvan
Khal
937
Tép
rubri
Jill
Cop
Tristan
exp
DHT
491
1803
##LB
Elliott
Frog
Inga
951
##travel
Shou
##fran
Probi
##yte
##diep
Dakar
##hậu
0000
Epso
Valeria
##erez
Sybr
Takashi
Bone
##uq
##eye
839
Seg
##orne
##Group
Kiel
Cyan
##ptus
564
Sega
Estrada
Gladbach
Kournikova
Vietnamobile
##phosphat
Nhiễu
Mansour
AMSA
Esther
Allison
##kko
Nefer
Aureli
Fagan
serum
school
##244
863
##orse
Chand
Ngòi
biz
Arch
##OH
CBC
Shun
732
Phen
VCS
AND
pay
##473
Koum
FK
##inter
liệng
##ijn
1816
xổm
Cycloso
##bill
##369
Berk
Fork
##gaz
##suka
Sayya
728
Chro
##gov
##trop
MHC
##phos
##141
Aeroflot
KARA
Niedersachsen
Recreativ
THƯỜNG
plastic
Givenchy
THỐNG
Bonucci
Pharma
progesterone
Conference
##969
Cayman
Còi
nhạn
Jedi
Mond
Ceratin
NHS
713
Tik
##434
##hit
cost
Alec
Late
##cock
khau
##stry
RJ
##UL
##149
Woon
Sả
Kes
Albums
Kiri
##154
Nephro
Paco
Gaud
##6000
OP
Pall
JV
circ
Sut
Autocar
Thinh
Quýnh
##beth
##353
Buzz
Assam
##303
##ffle
##wind
Format
##477
##uzz
Albacete
Allardyce
Dennstaedtia
Geotrup
Mendoza
Something
visual
Pietro
Guiness
Eurovision
Garfield
Bonnie
Common
Cardot
##anos
Hừ
Stay
Darius
##enz
Trap
stand
RAF
cyclo
##TXT
##674
Vệt
##hử
Kuan
TDC
Pepper
Rotten
##ourt
##zine
Burj
##chaea
Qian
965
##356
##VL
##878
siro
##264
##spring
734
##cillin
Aubameyang
KIẾN
Military
PVcomBank
Wakefield
tuoitre
Aviation
ĐÔNG
Chardy
Gunnar
Walking
gầu
##champ
Băn
grise
##ouz
547
Geneve
Thoả
Serv
826
RFI
##later
their
##uve
##lington
Kemp
##scan
Zico
Guarin
##cious
##246
Sie
##thro
##inka
NCL
##lco
JS
ITV
754
DPC
Dil
652
Wolff
##pei
kan
Corse
##rud
Beam
##ostoma
Stat
##thel
Shiro
##444
##Soft
GK
Slide
##cosa
Jeans
trom
##397
Viền
Exeter
Lovato
Málaga
Nalbandian
Sochaux
hamburger
đớp
Maximilian
##ƯỠN
Target
Malibu
Stacy
Evolution
Daddy
Sophos
Police
Lải
Jenna
Davallia
742
##llan
3930
GLK
IPL
Constant
Brave
##gir
##239
##kage
Cten
##urt
URL
##lava
xoàn
##urban
Dám
ESA
Murad
Carp
Archie
##azzo
663
##127
##087
Pim
tricho
##ssia
PCTN
##punctatus
Claus
##454
BJP
Jagielka
Newfoundland
Pratyush
Strootman
Yoochun
flickr
PHONG
amoniac
##unis
Zouma
VietBank
##505
belas
Macao
##olata
Maximar
lẵ
Majest
Karik
##oglu
Neal
949
829
Devi
##dox
##518
Vầ
Riz
##lein
Chee
##american
Moya
Insu
617
##Play
Sims
633
DIC
##taw
Wad
Sìn
Lehman
##enti
##berti
##endo
##GU
##illes
Almería
Mindanao
Nghìn
##cnemis
Tahiti
Huyndai
Richmond
CLIP
Batista
##irsium
Hernanes
JBL
Campania
Notebook
vector
Dura
1758
lặc
NUS
Payne
##ưới
Silent
sto
##idius
##phal
Tectaria
Mariano
##nalis
lint
##rius
Baha
058
Mạt
Bần
##ullman
651
##285
##ÃN
##455
Eich
Faber
Jol
Khong
Sadr
##bid
##onii
##OA
##uza
##HH
iv
1804
Ris
##away
##urin
##ticum
cla
Warm
Guerrero
PayPal
THUỐC
Vinaxuki
Spieth
Niwatt
kesir
Midway
SDHC
FHM
Lukasz
##leg
Smila
Lover
##stick
hexa
Bosna
Chém
dulich
##970
814
##159
2023
Gara
Filippo
ARN
XF
##rial
Eury
coca
Giga
CNH
##403
##ized
Kunis
Flowers
##rost
Taro
Gren
##lien
##tab
804
bẳn
##203
##407
811
903
##181
##Continental
##cak
RD
network
Romano
Ché
Cambodia
DailyMail
Developer
Hyypia
Lokomotiv
XUẤT
Onodera
dream
phạc
kayak
Kelbin
vietnamnet
##051
close
Mouse
Dasy
##298
Ayu
rhod
Cẩu
##estra
BCT
978
Campyl
rứa
Marta
Yoshino
Techno
##kay
##lore
##mers
Gallo
##kou
Chô
Dip
908
Beng
Squ
Pio
##tada
895
##778
##ascha
squa
##fr
Simple
Erick
tuế
Text
##inos
##309
739
##Pay
939
##recht
Clint
Jú
Jenkins
641
municipal
Asamoah
Calabria
Pênh
Québec
Sardinia
Strategy
Wraith
Zeppelin
twitter
Nưa
##kirchen
Shuffle
Monkey
Ridley
truật
chinhphu
beauty
Rổ
##gona
sulfat
think
Robins
##awat
##575
Đắt
Chamae
Hó
Solari
XS
pilos
664
cola
Thè
##531
Rubens
##agnol
Karak
##679
Riga
later
##gaon
##ecetis
##elichrysum
##orcadion
Everything
LLVT
Ladies
Peninsula
Suharto
detox
Bikini
Cornwall
Memorial
Phalacr
NTFS
Shawn
BẢNG
Anglo
Lybia
##243
Vãn
Eth
minor
Quin
##gột
##377
Barak
board
Thoáng
##FT
Zeta
ATTT
Networks
##126
673
Sok
Chiba
##zano
##helan
1823
##xion
##sign
##NP
##woo
Away
##yuan
ultra
##RL
Eure
Coke
##ité
##513
Round
RSS
Hole
Brennan
Calvados
Mobiistar
Ptolem
Sloviansk
affinis
ĐÌNH
flavonoid
clear
Kuiper
legging
Immobile
Candice
Pơ
Saipan
WGC
##oller
Peres
webOS
Cắn
YAN
VFC
quẹ
Kramer
642
sandals
##inda
Pucci
feed
Tetsu
##count
Celia
##wright
##ssar
Counter
Florian
Miles
Magna
##ĐKT
Tess
MCG
##ophilus
iB
Attack
Plei
Buông
##vad
Bike
##urrey
cở
Economic
##cross
Bois
Canadian
Tournament
Lavigne
Kungfu
BOJ
Lonely
receiver
Bư
Random
Fantastic
Imagine
KÊ
Nasser
cÃ
XML
Neuro
643
Sada
Bona
##vittata
Ellie
IDE
VSAT
Duân
##RDP
##khar
Tiki
033
image
812
##ocerus
##bag
614
##abha
##tamin
Soho
screen
TPCN
##nisodes
##oxit
JCB
##ornis
tz
##was
atri
##NIC
##jani
Megal
RP
##337
971
Lạn
Genk
chryso
776
##achal
DCS
##enthal
Phyllo
##euil
##nee
##teria
##ujiwara
JC
##gaster
##585
Auxerre
Dracula
Retail
phèo
Jihad
Okada
Sawaco
Ruddy
##otilde
Emilio
##mycin
##115
Seiji
##lua
MyTV
Phyll
Chloro
fin
Content
##yurt
##bbs
##ubin
flor
##HADS
##dak
MY
Triton
Ov
##ende
##989
Atsu
Niki
##carpus
Thiếp
erythro
##TSC
##onsai
##mati
Oba
##dzali
Roc
Warrior
##olotov
##185
##rướn
##489
Bjorn
Sepang
Seychelles
TIẾN
Bhutto
Kitchen
Wickham
Cecilia
653
Move
Wish
Zahara
left
BÉ
##rigeron
Shock
##woman
Date
##498
##656
PVR
##utta
Dich
##405
PNB
Traore
Denise
##elder
2560
##ouk
##eral
Lucie
962
Wee
Idea
##clus
Crow
GPL
638
##saban
Heinze
773
BCI
##PMU
PLC
Ord
##talia
##158
##kovi
CÁC
##lais
ươn
Karel
PAC
Delevingne
Glamour
Logistics
Marquinhos
Mexes
THÁI
nhẻm
surround
Chamakh
HMAS
Reeves
dreadnought
Ramadan
Voyager
Petronas
Transport
792
##TTE
Liege
TTLT
Document
Albiol
Delphini
Starr
914
Pride
HUT
ruble
##nhan
Foss
wax
##389
##217
##938
Marko
015
boat
##marginata
##place
##tiana
##596
jun
684
Poa
##derma
##889
924
##cae
##rista
866
##last
DU
##ilus
Pantec
Guang
##066
##tide
HOA
##779
##FO
Rech
##fie
Barthez
CỬA
HIỆP
Inquirer
VTVcab
Coldplay
Mizuho
Jonah
Oro
##grow
Wilto
0918
Flori
Formula
##UV
hển
McCa
Carn
rub
072
##erge
Hautes
##396
##sbach
##738
Intelligence
Lứ
senta
##eir
##chik
nitric
pict
##hoi
giong
##DU
cool
Trip
Fay
729
Rota
##pital
##FV
Khau
Raqqa
##today
Dnipro
Muangthong
Pittsburgh
chelsea
duhocvisco
widget
racer
DongABank
Poyet
nhễ
buoc
##zier
QP
##esii
KDH
BYT
Carlton
Theater
Daniele
##inha
Sắm
Arema
other
##isco
##ajero
##rostris
Diet
##lletti
##vico
sco
##uồn
698
Cotec
tiế
VPH
Fried
##162
lỏ
Octavi
##stylus
##tonii
Selen
OPC
##rrell
##troph
##lova
Foy
##auta
xồ
##678
Mnet
Augustin
##got
Ride
##376
##pera
Wheel
Jum
035
Rae
Pope
##ilda
Comic
Camoranesi
Polynesia
again
KLGD
Martínez
Anthophora
##ezzo
##quang
Macheda
ICTnews
Aircraft
Alphanam
Lotteria
THAY
##ERS
##tilla
##elec
Flip
Sr
##pham
Rogerio
##Sao
##SW
LDP
cắc
lib
1808
##UONG
bệch
##204
3936
##atio
##aspis
##539
935
##web
##stus
0313
ld
##ỊN
ưỡn
Quầ
Lopho
Romain
Jacq
013
##arto
Maxx
xavan
TAS
Prin
##165
USM
Container
DoCoMo
Márquez
TRÁI
Villeneuv
halogen
Acalyph
Citroen
Hospitality
Jacqueline
Lounge
WinXP
Tuscan
Lolita
Scout
pectin
Ryder
vlogger
Kaeson
Yaroslav
Modena
Sooyoung
Hubert
Necker
Camilla
797
Cordia
Boul
Cope
##kla
Haw
##quan
Lách
Sohu
Ricci
##vard
Hurt
contact
##ảnh
Tamara
satin
Pec
824
Rid
##onyx
Austria
##796
##mway
Pheu
Tours
933
Abra
##scens
##417
846
Jeanne
##UYỀN
Batistuta
Infinite
JETRO
McClaren
VƯỢ
natural
vodka
Hẻm
NLG
Barroso
Habsburg
TRONG
Spectre
vietnamplus
Journey
Hawkins
##Master
##907
Tool
##odendron
##RW
Begin
Brahma
Editor
##ayev
Lều
VUS
Mitsui
Vaj
Obere
Hachi
DAX
xcơ
zin
##thyr
asia
##0404
3912
Sura
Michal
Tax
##sama
metan
##mesco
##uốc
lactic
##926
Hour
Dear
Rơ
1809
corn
##coin
Ago
Sụ
708
##ists
Tectari
Rha
niv
##enka
883
Willy
##wards
Ensur
##imitar
##pton
Gb
##llard
Modem
aceton
Benayoun
REUTERS
Rajasthan
Rakuten
Rummenigge
lườm
Clapton
Multimedia
VISCO
0983
IEEE
Warface
Thatcher
Avalon
Matiz
Southernbank
Alderw
8800
Quentin
NHÂN
Liễn
Heard
Carrington
Scler
Erythr
Event
Hadi
Lilo
##đa
736
##loster
##bing
008
Faust
giạ
leuc
polyp
Racer
hổn
por
##esch
VPN
Factory
Ryong
##gularis
PPF
##yak
##tricha
834
VHC
Sabi
away
##orte
##pio
##roux
##novo
Agni
Pool
3929
SEV
##iforme
hl
905
muông
##SPA
LF
BẢO
Domenech
Glossosoma
GẶP
mainboard
Emerald
Hyoyeon
PepsiCo
Debbie
when
##UỘN
Vostro
unlock
pachy
Nomura
Meirel
Nari
Waltz
Aztec
Shoot
##stoma
Aquilan
Cody
LSE
##allet
NPT
bõm
##delli
Heal
Mile
Magnolia
##akajima
VMS
Lú
Darling
##Asia
Nau
hirt
Rụ
##bow
Gym
##TER
Koran
##mey
##oodle
ÁP
Lydia
##187
##evski
Flat
##amer
716
##wari
##rupt
##topus
pic
##ỤC
Cũ
Eleanor
Seleukos
Sylvest
VDSC
FIDE
Zimmer
Bartoli
Tonight
CNVC
Tokat
Tupol
##175
##jou
##erezo
Stipa
LHPN
##uj
Howe
##erta
##773
Director
Lian
976
##681
dB
xantho
##korn
php
now
Value
##702
Khoác
##feng
##rona
##ITM
Ponte
Rue
##naz
SGT
Guardians
##zad
Cork
Pali
Capita
Fad
674
Cornet
clar
Alvin
Keep
Naj
##oãn
ĐL
Deloitte
Geranium
Sentinel
Farrell
Policy
Cheonan
Suboi
Preah
Element
HTTP
cherry
Phức
Contest
##skiy
Lamela
WEN
Hleb
VQG
##ghazi
Vlog
Soros
Silvan
Đò
Ueda
Copy
##hydro
##leyi
Distin
Dist
hub
Films
##163
##487
909
Junc
Qin
##dactyl
1795
##nori
##boro
sã
Bourg
922
Foods
##ôxít
Mồng
GW
peri
004
Bolu
lab
784
##baba
dro
htm
Aberdeen
Analytics
GSMArena
Mượn
Sulawesi
avatar
evleaks
phyto
Shelton
Frankenstein
Kenichi
Fabaceae
Alsophil
Hogna
907
##cycle
Hass
##jur
Gyeong
Fate
Yury
##735
Gera
arch
987
Domingo
DBC
Dolly
ore
Leno
Bend
Kovac
VOS
PNO
xoà
QT
Sexy
sar
ship
##VE
Order
Door
891
Zub
##edu
##606
Plata
Hề
sệ
##riot
Tiberiu
ngoạ
##huy
##rda
Marks
Aura
Ere
Bates
##heringham
##thanol
##JC
Tera
Firm
##HUYẾT
##lobacsi
Agbonlahor
Ampedus
Bellerbys
Bethlehem
Idecaf
NGUYỆT
Novgorod
Plectranth
Somerset
Vinataba
eyeliner
Miyazaki
Student
Soriano
Television
khểnh
Beetle
Webcam
##strict
Durham
Burgos
Hera
Kruger
dz
Solid
Léon
##762
Steau
cr
peptide
##bera
##anthi
IGN
##KO
##maha
Chrom
Santana
##nais
vối
area
##dder
Sparks
PES
Brest
##966
##oideae
granite
Dock
##witz
##egalov
Poir
##451
##ÁCH
Rift
809
Styles
Múc
Erem
##gby
693
Kaza
Ink
HPC
Tộc
Sender
##044
##yz
Honsh
luu
Hampe
##ledge
##458
##olus
đậ
942
779
Kuznetsov
Miq
##power
Swi
Baldwin
Chennai
Fassbender
Mazzarri
Quaresma
SEWOL
SÁNG
Narendra
Congress
Ruhr
ĐĂNG
muban
Baccha
Tayyi
Falko
Nadia
DW
Why
##273
Schle
Frame
##byte
Cosmos
##rue
Tudor
Armand
Goldberg
Khiến
##pple
đễn
##erten
Nav
nagar
BPC
057
Million
##lodes
Brugge
0934
##sius
xốn
Kand
##andy
##ische
##football
rađa
##toshi
Pain
##shed
Boe
lun
##466
Nhặ
histamin
##ắk
Mohamad
878
Alkmaar
Heskey
Hogwarts
Polytechnic
Schwartz
Ubisoft
Fanning
Canary
##illion
##hẩm
HBB
##embe
Sunda
Savage
##ignon
Sinop
##etter
Kob
bazan
##zman
Challenger
##cone
Worm
Medel
fre
Toku
##157
Rik
Sign
##257
##534
##uối
1799
Muntar
Kuril
##hở
lute
##835
Ruz
Fico
##aldehyd
Metacritic
Observatory
Ortiz
Pristimantis
Ultherapy
Yatseniuk
keyboard
Milestone
Fabius
##skov
Redmond
Medicine
Judy
Seong
vược
Dulux
Ned
Nikita
HÙNG
Dreams
Mondeo
khú
##567
##ỜI
##rf
Kno
##minute
988
Reza
Rogue
Thal
##433
Dota
Bento
Message
879
Repl
Kuma
tém
Vòi
Johor
Nghiêu
PRP
##TRA
##174
##kere
auri
VST
##phyllus
Hỉ
Coral
717
Faye
shin
##anovic
Pú
##Scan
##River
Area
BRICS
Flamengo
Jimenez
Rolldock
Shaarawy
Zarqaw
transistor
##petalum
Courtney
GPXD
Mashable
smile
Pandora
Ronnie
Cichl
Gameplay
Habana
Forster
Albion
ẢNH
Sạn
Steiner
Avant
BCĐ
McCo
##pak
Blank
fish
Ince
##schema
Olive
Wren
Hearts
pano
852
Heng
##RU
##653
##frons
cross
Lastre
##cole
Panett
Schwei
Ngắn
##uhl
##chie
Contra
##ality
##amirez
FW
Lepido
##tomi
##arev
Fau
Gibb
Yon
Aude
##139
##bone
Lok
Bóc
##Corp
testosteron
##anicus
Joker
palli
##đã
Eugen
Bruxelles
Casemiro
DDoS
Lovren
Mazurskie
Paepalanthus
panorama
##ndeavour
Krasnodar
##braxas
Kirsten
Passiflora
punk
tahya
MINI
Wilkinson
Cheung
Netbook
Genova
Clarkson
Rhyacophilidae
Rahul
front
Tone
Shang
Harf
Phun
##Car
fix
Aso
Puy
##516
nhặng
##ovsk
Maga
Andri
##arcinia
Matri
Mardin
947
Edith
##direct
Ráng
Tep
##mission
Roch
Damian
Philippin
##kid
##354
639
##Ro
Xeon
Wise
Elias
here
##call
##nomoto
##116
##wich
Spot
##361
Candle
Gama
ABBA
##ẬT
Cuenca
Dpreview
LNTT
aerobic
lactose
Río
volume
chõ
##Script
simplex
Vermont
Genius
Marlo
##dentata
sheer
Gavin
Megawat
Ebou
Luộc
Palais
Karate
Nagar
UVA
Spike
##jj
Bụt
##uar
Tặc
LW
CAS
##KB
Qing
##436
Sakai
Gymn
##BANK
969
Haifa
Naive
##521
##igno
Zag
load
##CNQSDĐ
thuoc
Ode
591
Maki
Flora
Communication
Almunia
Dagestan
Illustrated
Lancashire
Matsushita
Snapchat
Tamerlan
homestay
MySpace
Goldsun
fusco
Reddit
Ridl
##566
Rojas
Sword
##rce
Ready
Noda
Crete
ZR
##ulation
##AW
##178
ẻo
##micro
decor
088
Phuc
##541
Masu
692
Alert
Mimo
SHBS
Sciences
Bakh
##ilio
Jamal
##920
ĐÁ
Crem
wil
Jima
Arri
bida
##bold
##park
##Smart
##thea
mèm
Hold
724
1776
##hoff
Nung
TTTT
Kyush
ez
Camus
BrahMos
Delaware
Interactive
Inverter
Pharaoh
ĐIỂM
CIEM
CATPHCM
Heathcliff
Warcraft
shirt
Agusta
##094
adeno
Gerd
##683
Francesca
##ĂNG
Angels
781
Hisa
Vong
##dien
Chivu
Vest
Harv
##guard
Martial
##cult
IEC
Salad
Bess
Nazar
disk
##paper
##BP
Orhan
Bremer
##mbro
##kamp
Cosmo
Khiển
##379
Hanna
Rings
856
##rika
631
Sava
Send
##Care
Kerch
##yung
Qué
##reb
##alley
Hấu
đừ
1786
##976
SoC
Bihar
mph
HVN
Rana
Haq
##được
##Lab
CSC
##481
##onchita
Benatia
CIENCO
Ranuncul
Scorsese
gallery
menswear
HUTECH
Trotsky
##schaft
##optilia
Navitas
snack
Velvet
Athlon
Hypena
Phơi
Chandler
Caucas
CŨ
Phraya
yaman
Solutions
Ngập
884
meth
738
##sulf
##411
Ordu
##agra
##kw
Aza
##gten
Kind
Simona
Saya
1783
Alpi
##telecom
NNT
##luta
979
##tama
Eucer
Arti
##gall
Balo
blues
##sheng
JSC
##476
##ECT
Hawke
##cereus
##TZ
##pteris
682
##429
985
##gaard
778
Divi
##468
##TWC
chặ
##wig
Karin
006
Bundchen
Fallujah
HIẾM
Insight
McGregor
Nguoiduatin
Strasbourg
TravelMate
Voronezh
Zvonareva
purpur
Pebble
Cricet
NĐTNN
Zenbook
xDrive
##rkic
Craven
##ÒN
Fanta
##elina
clav
content
luon
hiem
Xơ
##161
014
Peterson
Worth
Ngát
3995
TÀI
Calo
Topol
Capriat
##phra
##trip
##zur
KW
##ệp
771
Letter
##047
##varman
PTC
Buri
iii
Somcha
##ancy
##diana
Kimura
##retta
Vorm
##kata
Muay
Borisov
##odus
##928
Elst
##Wire
Shri
##akorn
##weight
Always
Cuadrado
Experience
Maldonado
ATVSLĐ
Helicopsych
geisha
after
through
FBNV
Meadow
Snake
Neeson
##veni
Cannon
Ramadi
Larissa
Ngốc
##jico
Twist
Kỉ
##labris
ipad
mut
Andhr
##442
Yoshida
Willem
##fford
##nobu
##eille
##TTT
Shima
Vác
##zmir
##enheim
Blink
Earl
Patiy
##vien
chòe
hem
Ota
ẹp
##notata
##kus
##anin
##urge
Bryant
Gijo
##jak
##lif
##135
##puncta
Viz
chậ
mur
Punt
##tique
##ườn
Rì
ABT
Hutch
Roht
##FM
##ajik
Ajaccio
Dipoena
Ramesses
cascadeu
ĐỊNH
JACC
mazut
Ultron
Fitness
Protection
Hooper
Gạ
Bien
VỤ
##cup
##xel
Alyss
##060
Elbe
##156
Mille
Given
##muth
##akuza
Avon
##lies
Odonto
Cena
944
##hanning
##905
##chroma
1497
##yaki
Meet
Myno
##sub
1807
##base
##ạc
nitro
##291
##obacter
UP
##guri
Caro
Goto
Acropor
gold
##él
granit
Sawa
travel
##hydrat
##329
Production
##kic
Impossible
WLAN
Wanderers
bowling
casual
Chalerm
Faisal
Huffingtonpost
ICBM
Lacetti
ĐẠI
Gamble
Trachy
Pond
##syl
Fiona
Rally
##vé
Bernd
Eight
Agent
caroten
Sela
Sere
##261
Serb
VNPC
Montag
cz
##dev
Ovi
##colle
##2014
Chern
##croft
HAS
813
Patel
trố
Wow
071
##rox
Leaf
Endo
Clare
Sagan
##kovo
##551
##front
Astori
Celeb
CFC
Sà
Đắ
##fid
Changi
##ivity
mư
##Mbps
##beat
gem
Xenon
100224823
VietABank
bươm
people
Kissinger
Register
CQCA
Belbek
phễ
Oku
Maroon
formosa
Gieo
nhùn
Gemma
Blogger
Ngờ
Buch
Ghz
Brie
Cõ
Antony
Marius
Kenshin
MMO
##LN
Trel
EVE
##276
##ớn
##706
##anthes
##mania
Alpa
Celt
##248
Pattan
FU
Erd
Maori
##ovski
##lobus
Giô
Lamar
Christoph
##made
##itinga
##cheng
Ranch
##479
Edit
644
Cissokho
Eritrea
Gyllenhaal
Hantuchova
IMAX
Predator
meeting
Wealth
sneaker
##rhynchus
GNU
GIÁ
factor
Irwin
Nashville
Juninho
Accent
Blunt
867
Kubic
install
Phao
Pulse
Yoshihid
Reb
Cbiz
Schwab
Pseuda
Productions
cry
Dirk
Hydra
##ophis
Campina
UPI
BTU
xxx
Beto
1790
##vec
Nei
SANG
VPL
##rè
##rago
Deir
##quil
phospho
Aniso
Brod
##ushman
Sình
##655
Campus
Jaw
Seul
Archer
WAP
Dìn
##625
trờ
Minor
Ira
066
##KK
##LNA
ster
##Fone
##675
##urance
Bua
Ecclestone
JVevermind
Nuremberg
Together
Yozgat
flashmob
##nghaejin
##iculidae
Ryukyu
gelatin
Gyeonggi
NZD
khướt
microsoft
Boldsky
scabr
Trevor
Esele
Wanted
khệ
ball
Larson
Fargo
Chóng
Saxony
##center
##cau
##hức
nhộ
##334
##nykh
##259
Cron
##569
##bud
##ogn
Rudy
Tate
Mash
Ilka
##335
SMC
crack
Organ
##OMC
##cover
##zard
##noma
Strip
turn
##437
##wol
Asura
Ive
Dép
##prop
##ritz
Debe
##kaze
Lomariopsi
neutrino
##aquinta
Makarov
Bromwich
Cottage
Alaves
Hampton
Draghi
Beatty
benzen
Giăng
Tropic
Bongda
Razer
Croat
TỈ
Đạc
Miễu
053
fps
market
Chef
mil
Vách
nhoẻ
##Key
##628
Đắng
Ratcha
##psis
Reis
##ragon
##703
646
Cristo
##xyl
tọ
Dace
Sidne
Loren
water
Dora
Kuk
Limo
obscur
Hsu
##474
Asta
Diplomat
##KI
Xeno
##ặm
##HÂN
Odo
Antwerp
Coulthard
Marriner
PBOC
##continental
##omputex
Botox
Karatedo
Swarovsk
CSĐTTP
Rosol
small
Yap
OEM
Dusit
##acca
Knut
##265
1811
Myers
crass
##ignan
PU
##HL
Fiore
RV
cute
##hieu
807
##836
982
Torch
##cular
##vida
Gregor
##emma
how
Tấu
##bile
Hí
##761
GAP
##ecker
Newman
##ador
##nion
Aspas
ROA
Ames
##export
882
##PN
Eugeni
##IGC
Pà
##Power
Walsh
disc
##CAP
##381
##break
##ovice
Cinderella
Condoleez
Halilovic
Incredible
Lượm
Nyctemera
Terminator
Valenciennes
##ƯỚC
Súa
Trôi
Repsol
Hancock
UPU
Nghẹ
Hurley
what
Eleven
Bommel
##dja
OTG
##idiaceae
CÓ
931
gú
836
ASM
Nast
##GE
Sokol
Residences
##petala
nguyễn
Feld
##rgu
save
Gaspar
AKB
Mỳ
##034
Shay
Theres
Original
Rẻ
Kishi
##dje
Kora
##zac
Safi
Bệ
Rina
Sacom
##hram
XY
##strum
Fix
##avalli
##311
##657
bieu
0936
##avia
troll
spir
##katsu
##935
TZ
RGB
Stox
##374
##ambi
Rudd
Sumo
##lise
Ipswich
Jelavic
Libertadores
Mafia
Philomena
Recovery
##pattoni
Figaro
Kolkata
Voltaire
Protocol
intermedia
Fallout
##tarsus
Couple
Tomatoes
Pirates
Sandler
##iđan
##908
PISA
NMD
UVB
Oncid
PAK
Hieu
Sousa
Hayes
##wyn
##837
##425
Cheilanth
##090
##chak
Toe
Oleksand
Count
##ological
##aglia
##pec
##buck
xuan
8416
##669
##Score
##adenia
##287
Brando
Orne
##708
##Daily
Protect
Emir
##phr
##192
Giaccherini
Hawthorn
Meulensteen
Neanderthal
Pravda
Ritchie
Success
Surabaya
gỏng
chũ
backup
Ground
Arne
Schneiderlin
Hallyu
Joint
Hilux
JPY
Ayala
Tulip
HIỆN
Ocho
Were
##iferum
Longoria
##sage
##idum
Arseny
##meric
Phon
1798
##gumi
Sumi
##ZR
Monsters
PKK
Suba
##FU
Bulls
Anas
##478
mèn
##2140
##orda
##137
##omic
Giulia
##yeri
##PLUS
bla
##motion
Troch
##cris
##etho
Mek
asper
##aceus
18001
##enb
##432
Shih
##erie
##997
##sema
##stop
Milla
948
857
trư
Nakhod
Nichkhun
Olufsen
kangaroo
Suzanne
Lepthyphantes
Centrino
pubescens
Reitter
Module
shisha
Damien
morphin
DirectX
acetate
happy
Milton
vuot
PTSC
Amauri
Wired
##HU
Robb
ruby
Guer
Lindse
Kensing
hui
Iwo
##rawa
##pres
pub
##BK
##atz
##rond
##agrion
##565
PVA
Russian
Transfer
Karol
##occa
##515
fly
##RY
##quos
##036
Files
##lope
alba
##lá
Psycho
##tuan
Rơm
Macan
trading
PAL
916
##327
Quynh
Demon
##eris
Xiê
Coop
Constantin
##aoui
876
##NPC
##ghẽ
##Week
moto
##HQS
##azine
##418
austral
##anthemum
##cercops
Clyde
Despicabl
Kalashnikov
Madeleine
Mickelson
Pearce
Saakashvili
Scrapti
Sussex
Weinstein
Shopping
Meyler
PHÚC
Pegasus
NHẤT
##jel
Leahy
Pinck
TVSI
GÌ
Gambia
person
DNXH
hydrat
ICD
ngoe
Prado
Neso
mân
xếch
kyu
kill
serra
Flyer
##jal
Pulga
##144
ERC
Nabil
##435
Xyri
##raine
##pack
##bed
chấy
Sphaero
##canthus
##0508
CAM
##egia
##aquim
##gye
1199
068
phenol
Guza
##0486
TTF
Seb
##151
Dền
##zka
capo
##859
##lanche
##riv
##413
Tonga
##ressa
Consadol
Fibonacci
Hennessy
caramen
Sinaloa
Dolphin
Survey
Adult
Skull
Scirt
##algado
BHS
Xantho
Grewi
Judith
similis
Rodong
##airmaire
Sorry
Afamily
PVEP
##ITES
Reno
Thebes
##ITE
Dynamics
##olaena
##kv
Chadli
##methyl
Sip
##241
##eval
##alensis
Kien
##573
##ophylax
Bernie
Feel
Terri
746
DAP
CSIS
983
THE
##stria
Radek
##oòng
##luy
##299
671
0710
##db
##136
##906
note
Wak
##guide
Camil
##Blue
tuền
Cinnamomu
Grouvelle
Nhuộm
Oaxaca
Scutellaria
Tolstoy
VÂN
alternative
DBSK
platin
##NTR
FaceBook
Kinect
Geisha
Folder
Breath
Sartre
Diouf
Combat
villos
994
##atrix
Astro
##erf
##cision
its
Karlovic
Barber
Hemsl
Teri
Hahn
ice
##sterone
buy
##Web
Isle
##dv
##176
Aria
##nci
##struc
##table
##677
9900
##ayo
Hyde
Cạ
Colour
##866
nư
NVB
##rembo
denti
##714
Avio
Advisor
Phyllonorycter
Rothschild
Shelvey
Smolensk
Tribune
business
Maguire
Najaf
VÀNG
##lematis
Deakin
Nicholson
Marcello
Oakland
Seville
Sonny
Achilles
##ucu
##llon
Siberi
jong
##988
Leuco
nin
hoắt
Nikki
VnE
EBD
fri
Aphan
Pyg
Eyed
ANA
697
Tatsu
Kog
use
Lipari
##ANA
##metric
Local
##ermann
##tenburg
Same
VEF
QX
##Media
Stol
Kakao
##irelli
##ramine
Doom
Closer
##abeco
ACT
Omni
Miki
Zack
##Box
MAT
##743
Gamma
##148
##357
##fascia
Pole
NST
Elysee
Tutankham
Yusuf
Ignacio
Parsons
Trizzi
Pretoria
Edmond
Oseni
Glory
Pinoche
ornat
Kangnam
Mantisp
ACET
Nations
kata
kcal
Diels
##844
setup
dioxit
##975
Rông
Thềm
##achen
##IVE
Strand
Nate
##ental
Manstein
SAO
ATA
##hora
##jeong
Roz
##pixel
Bek
Dieu
inec
##fax
Wire
##ivik
Sole
##ertz
##inny
##hud
##734
Dab
Sulli
997
##touch
Rolf
HyunA
##ranger
##QTH
##date
##gyna
##744
Saito
SNG
##radi
791
ECO
TCP
Hên
100000
##kensis
Hử
##omeback
##631
Admiral
Potsdam
Flamingo
Heritage
Holocaust
Khùng
Livermore
LÂM
Mysore
Panigale
Sheldon
Stallone
Vosges
benchmark
Spirulina
THUẬN
BHTN
Bottas
Agostin
Library
##070
Pyrros
Artistry
Nothing
SouthernBank
Maritimebank
EHome
##vanna
##ivka
Cleor
study
twin
Aristo
Hori
##Con
Fuller
028
Cycl
AJ
Ulu
Constantine
AVC
tiet
##culatus
Vasili
java
##6500
Tị
Kenji
Dune
##elis
##scale
##rme
##ceras
##902
CGI
##ushiro
Esca
SEO
Mormo
##staff
##rdan
##oeller
##linea
Nhụ
Leah
Trich
Cacere
##aceum
caffein
Eduard
892
Ambrosin
Ameobi
DaiABank
HÒA
HẠNG
Iglesias
Pfizer
Stirling
ọe
##irthday
Grosskre
integr
Kansai
cinere
Baroque
Reichs
Spacy
VRAM
Evangeli
family
##642
VFM
0988
Burner
Tube
friend
Adan
Mercy
Bower
acuti
Investments
Domino
Swee
##luca
xìu
##483
obscura
apps
##olla
##ography
##lack
##ognathus
1787
Monk
##ground
Left
##phong
##497
##quy
##308
##306
Phông
##ectin
Khlo
Colla
gừ
eva
##bora
Spor
Pte
cro
##urata
##ganj
Saif
Sein
##melie
Rạn
##143
##Bridge
late
Seppi
Elâz
Fumio
Gaziantep
Ibaraki
Kafka
Kwakwa
LỘC
Olmert
Pjanic
hashtag
Justicia
coupon
##stall
Password
THỂ
Autoblog
Trượng
australis
celeb
Keegan
Hotboy
Klever
Bolero
Produce
Indre
Savico
Sister
Lower
corona
plum
##328
##ational
Sentai
##elve
Fleur
Near
Vinacaf
##zki
##riensis
cel
Kanu
Maran
Cudi
##etica
##heimer
##gny
##cture
Armor
##AK
##364
AMC
Hits
Linn
sù
truyen
Maple
tộ
plant
Columb
Khon
Xue
##289
864
Sacch
##Online
Kamal
##ermin
DSP
##wney
Lilian
##protein
##tane
##ergic
Laemophloe
naked
Dominguez
Marguerite
Twice
Ucraine
Vejjajiva
Yeonpyeong
Primula
Fivimar
Yamaguchi
acetyl
croptop
Ariadn
curcumin
Startup
strig
Yeah
Clusia
##ohl
VRG
stu
Echinops
Sylvia
Abdi
LDL
##zzano
chuot
##orman
##tulus
OR
xuyệ
parvi
Flavia
##green
ETA
Hohen
##linia
##fik
Spil
##atuna
##bensis
Bethan
Graz
Estate
731
Pare
Tampa
Hagen
847
Dial
Bruna
đũ
##trichum
##mphetamine
Baodautu
Benchmark
Fisichel
Mahmud
Plagiochila
Salamanca
Schultz
Witherspoon
Defender
Robbins
Shimoga
DreamWorks
montana
Stigmell
Kerala
ASCI
Elegan
Barney
Molly
histamine
Notre
OVA
##macula
##661
KDL
byte
đuô
##rocco
Geel
##III
##saku
Manny
Nep
##Arthur
##KU
ANC
##czy
##oeman
UTS
Sylvie
##fest
DAB
##277
Grazia
Cott
Mán
##stea
Kehl
amoni
##604
##blanc
Kw
##sund
indi
Espa
##egui
##281
Sàng
Oran
Sạc
##994
Cucurbit
Bezos
Cobain
HẠNH
Mulsanne
QUỲNH
Thornton
vietjetair
Kimberly
Manitoba
Carpenter
Bardsley
École
Ibn
Xylocop
Perrott
Bogota
Bhumi
##auhinia
Perkins
##acaranga
Amiens
Makeup
Gayet
Runner
##aúl
##gnac
Ventures
Josephine
Broken
pín
##4000
##under
Pedia
kilomet
##jc
iod
758
657
BIS
HAN
Leila
5566
##587
Arms
Barba
Heter
##DK
##322
##hồi
##rinus
##797
Loranth
wide
Barre
CPC
##themis
latin
Altai
Philipin
Infan
Chá
##3100
837
syn
Charge
##kazu
##derling
Avenger
khị
Korn
##HK
##717
oversize
Thự
Ascoli
Sénégal
Voldemort
Phnôm
Female
Herzog
##umberland
Aerospace
Euclid
Rhynchosp
Mascara
LOAN
HKVN
Jiyeon
Mineiro
Haneda
##pteryx
ICS
Castrol
sấn
Goodman
934
vnpc
PFL
rnberg
##Gadget
SDK
Baptiste
##177
##lito
dpa
##467
##yushin
Anatolia
Pirat
973
Gilli
Judo
##295
##seco
Pune
##962
##594
Yeong
##053
Salem
lèn
BoA
Peel
Hieron
Pasha
6666
794
Chaeto
Schel
##khoa
Nubia
##oxylon
993
Zig
VTS
Mateo
##138
##seong
Aurelio
##lte
Huddlestone
Kohlschreiber
Olympique
WeChat
benzodiazepin
clinker
Apartment
switch
Exocentr
champion
Aristotle
startup
Department
record
homo
Portable
Dairy
Noth
##lasie
Harms
Akbar
rụm
##orensis
setting
Zap
Salle
Genting
Vine
##799
##drop
##enkov
##chip
Recep
##IFF
Reality
##kovski
TCS
Sẹo
##caria
Ayun
##frag
CNA
Amos
Helmut
##otic
Tằng
Ando
691
##dek
957
##173
Wine
##udd
Yaku
Yeol
893
##skoye
benzo
##seki
##yaku
VSA
Fern
##764
Plato
##otheca
##Subject
thá
##ăcxin
##idos
Canterbury
Erzincan
Fernández
Nassau
Quagliarella
Tucson
Twain
Welcome
country
Hoạn
Alopecos
Kraków
orientalis
Theatre
little
double
Bergamo
Holtby
NHTW
VIET
tubercul
knot
Lăn
TLH
Depay
Chắt
Radula
##hemoglobin
ngắc
Creta
Bogdan
Khaled
Clive
##angeland
Once
##841
CTC
##wheel
Iba
783
CVĐ
##signata
Safina
##KLĐ
##ZA
Ashima
##luck
Cuoc
Goku
gibb
##eid
##598
##enfeld
##imum
##spina
Beauv
##316
Ise
Stor
##ify
Pelle
Ampli
##icula
PSA
##occini
Metropoli
RTC
##leman
##ossack
##glottis
##ouncil
##tile
Aeschyn
Calendar
Sigurds
Lukashenko
Salomon
Pandev
Xoàn
##471
Battlefield
Kampong
Cuội
Rainsy
Belletti
Fest
Sutil
Lowell
##rouble
Ariston
##sfeld
1782
sậu
1791
##ocephala
##ostemma
NVN
Tụy
##ucker
Uno
##153
Ơi
##616
##euer
##khon
Nachi
##IEN
Rising
##147
Austral
##fusa
##457
##705
Toki
GOT
##HR
##enahalli
##890
sé
##enter
Roque
Rinh
##heumat
1793
xoá
last
Ruf
##bound
Chinn
Canio
859
##rantz
kara
Loay
Bèo
sales
Kron
##giờ
AIT
Kaba
##bourne
VAC
##eocharis
Breedlove
Enrico
Vanuatu
Variety
endorphin
opioid
drift
Calliostoma
Matsumoto
Laguna
Oahu
Split
Cartier
Version
Aegea
Byron
begin
Posco
Rứ
Lifan
Haven
##emasek
Basra
Friuli
##khu
Strel
##ouv
Correa
Manning
##word
Faw
##463
##fast
Ebank
UFC
##arna
pitch
very
##apis
toả
Shoes
##ctum
PHC
Nanya
##492
kich
Bunge
##rok
Palaeo
Ukr
##441
##649
##chart
##palli
Haus
##gliano
##728
##milk
biề
##ẬP
WW
Proton
##estradiol
Callejon
Hosni
Kendrick
Pompeii
Ciudad
DÂN
Goodbye
Vantage
border
Cluj
Lisicki
Vulcan
Hillsborough
Tikrit
Berjay
Crayon
Defence
Support
##proctus
Zapata
GTGD
season
Webgame
Maggio
Giầy
Nihon
Cambri
Khar
Berber
##catus
Bauer
forward
##662
##ucher
Hayek
Novi
986
SAG
Hỳ
mark
##nand
##iesel
Rộng
hlv
mọ
polo
##887
Giles
##engo
##disk
1498
Trento
Candida
CFA
Shad
Villar
Murcia
##reta
1794
##beyli
##rinda
##gging
##059
##637
Brenda
equ
##371
McD
Psittac
Automotive
Niigata
Pinterest
Weather
japonica
ĐỒNG
##cellulose
Meteor
Mulberry
Aconit
Griseb
Jessie
Paspal
##164
Globo
Hesper
Euler
Menez
Kristian
Sabella
Lively
Trouble
Cyril
Xăm
EMC
zona
TNS
Toto
Houll
ethyl
Brandt
Kardon
Pavlov
Lév
##336
Vờ
Nook
##dji
##onville
Carry
pê
077
##TCN
##603
##146
##hogne
xra
JK
Lancer
Ciro
Alger
##491
##mallah
##925
##tender
##express
927
##085
Egg
Third
Zil
086
##HM
Nakata
964
Lowe
##zko
Frederic
##netvn
##ovii
Halifax
MẠNH
Qureshi
SMARTPHONE
Suriname
hợm
telenovela
Pterobry
Beatrice
Gianluca
folate
galaxy
Aspirin
Taobao
Trophy
GABA
Kyiv
Senior
8217
##lho
##kids
Dacia
Songkra
pallida
Parent
##attha
Giun
Salim
Jovi
##azir
Priv
Numan
##elma
hụ
##242
##runus
Koban
ĐTĐ
1797
Tồ
Rize
##istis
##HGD
Lech
##453
Cheil
Tuồng
Cave
##256
##udan
##inella
##porus
##usilo
Yul
Champs
##kula
##HAM
##ulina
##559
##calyx
##esium
##684
##erita
Scarlet
BAE
jet
##epard
941
Kiển
##gapore
Vê
ONE
Asphalt
Authority
Celebrity
Concorde
Hermione
JustaTee
Kathryn
Lagerfeld
Lycaen
billiard
chiffon
Microsystem
##oplitis
Address
Randall
Vickers
BĐTV
##apicalis
Blaise
ĐỖ
Monique
entry
Dickens
Adrien
Clayton
Pulau
##bello
SGX
Cobra
Nuno
##oran
##honglao
BSA
Equipe
Germany
madu
Sey
##akaay
SCO
glabr
##biz
KSS
ĐSQ
COD
##TTH
Thirds
Exili
xiề
##tsunori
Tyrann
##cincta
Copt
niger
##827
##OST
Keng
##jean
NTV
##193
##Air
##665
##LR
##6001
Agut
tool
1772
Auguste
Billie
SEAL
##esha
iran
##856
##arno
##edge
##ylus
Haut
ADVERTISEMENT
Anichebe
Cosmopolitan
LaBeouf
Steyerm
TƯỜNG
Wahlberg
iHay
melatonin
Object
HTMi
Byrne
Heracli
Lizzie
Solange
VAIO
Makoto
NYSE
##urismo
Kumho
Eastwood
Sportback
Self
Forex
Conquer
##logger
oligo
Dayton
Xù
Oxali
Yonne
Nò
Pict
Poz
theme
##hex
VTB
869
Hoffmann
Fact
RSI
mằn
synth
Institut
Olig
##jiro
##hashi
Faria
##rij
##estre
hut
CTD
Heterocer
Deca
Hotels
Naf
Bono
vể
Gọ
##TSA
tec
Frans
Patti
Sind
##arctia
pad
Yag
Amasya
Andalusia
Ferragamo
Niagara
Piszczek
Volgograd
polyphenol
Hulkenberg
Cuneo
Melody
Trabzonspor
Nhứt
navy
Widow
poker
Laurence
Suwon
##673
Chôn
Ital
Boxing
##onnais
##iflorum
##omputing
Blix
Warriors
Fole
##ebo
Teh
chành
##schen
##agus
##829
CAT
nhẩy
Mitch
product
Dias
enter
Newell
##grass
958
##jack
Fisch
Slow
Baru
Juno
Sedi
Mirko
Straw
Hex
##sale
Ruk
Cramb
##shiro
Thank
Oss
Madden
Laurie
Conner
PVE
##lbert
Montero
##Nam
##fashion
Linkin
BREAK
Cabrera
Fonseca
LaFerrar
Mansory
Property
vienthammy
Cryptophag
Progress
Natalegawa
Shawcross
truncat
Mobiado
PetroTimes
Airblade
Luisa
Install
Vogel
Backup
ICAN
Takeda
##benz
Cinemax
Carb
never
Leung
Subic
Guido
##thur
Zuma
##quatorial
mollis
MSX
##272
gảy
Sáo
Missing
##gonia
Hawa
##ART
coban
Mendel
kam
Krakow
HDL
Krasno
Kuru
Tales
##azza
##687
Yok
Troll
##uvi
based
Buz
Gabriela
Pilot
Pré
##426
##557
Tật
##556
Haplo
##Up
liti
Cosmi
Russo
##895
gil
Cora
##ggle
pơ
Flavi
##eche
milan
Karan
Lặn
Hospital
Foreign
Mehmet
Minneapolis
Mussolini
Nocerino
Remember
TÌNH
Bissau
Snyder
PHÁT
Surapong
Sloane
Higgins
Valbue
Sedum
Bombay
Falls
##ÁY
Simao
Trobe
Osborne
Lviv
##858
ISIS
Rowan
Besch
##Grumman
Ein
TMC
tẹt
Ioann
tweeter
ngoằng
Neb
Elisa
Blasi
##IDA
##stos
##steel
Prodi
vồn
##odytes
CLG
Coin
Moz
FIT
##142
##037
##yanov
Haag
##pill
Sulu
hosti
##resol
##ehler
Renta
Restio
park
bun
look
079
##aryl
##544
##5100
INN
Chy
##Vision
Moan
Noor
Client
Orchard
Qosmio
Sotheby
Twente
WikiLeaks
Scorpion
BĐKH
Clerodendr
Schulz
Maxillari
Mehdi
shortcut
Storage
Bedford
Castilla
CHỜ
Micah
Xahoi
Kuhn
metallic
Birkin
Rankings
Hứ
##Zulu
##othecium
Unity
Abate
Pike
strict
##pala
##SIL
Emre
##inggit
##cifolia
Cheo
##fried
Malin
electro
Troia
##293
Balan
##rul
##gala
##huyễn
984
vập
Zee
##stegia
##amadou
##ndre
Caspia
##QS
Sikh
Octa
##317
##emer
Chê
HDV
##drome
Product
Fog
##leopelti
EcoBoost
Industry
Luxemburg
Montreux
Sphecod
TripAdvisor
bogey
occidentalis
bolero
Winehouse
Intimex
Desmodi
obama
Friedel
Nobody
nokia
Stylus
Bye
Chery
Truth
order
Eugenie
Rộn
Hamann
Early
Vichy
Giza
Guar
##sticta
##ricus
##duong
Lendl
694
##rank
EIA
week
Ell
Browne
Horus
Assist
##rillo
cello
##ocalyx
##kreis
##arrington
##noid
help
Deal
Nọc
##756
Camille
##teur
##bate
0915
Schumi
Odin
977
##artramiaceae
##lois
##astrum
##901
phệ
Aris
Satan
Linden
0916
GET
Posh
Gobi
DCR
1784
thưở
Popular
##532
Mersin
Meiji
##delson
xuê
##http
##villa
Beilschmi
Westfalen
Altidore
Brangelina
Chloroclystis
Dartmouth
Elantra
HỌC
Impatien
JYJ
Platform
Poklonskaya
Saldana
anakkale
bluetooth
Cuộn
Aisne
Pokemon
##teatoda
HOÀI
AEON
ĐSPL
Jedda
Junichir
source
Comfort
Barcroft
Haruki
đẹt
Vijay
khuyển
Dudek
Shinichi
DRAM
##night
##connect
##okbook
Denon
##meyer
idp
##7500
##type
Aux
feel
Robo
##367
Cheon
Hexa
##571
##tipennis
##ential
classic
Stuff
ALP
Sportiv
##rhyn
lux
doãn
Jungle
Boruc
##lippines
Clem
Chess
##tevie
Juke
Haji
##ouf
African
Delaney
Firenze
Hebdo
Hitzfeld
Humphrey
Kramnik
LinkedIn
Patterson
SanDisk
Schiavone
Scythia
Shiseido
TechCrunch
VNREDS
Valdés
Whatsapp
Seyfried
Corriere
Underground
Battery
Fahasa
Evelyn
ĐNÁ
Beslan
SkyDrive
Taipei
Coruna
Halico
Killer
Lodge
Fuchs
rigid
Mattia
sinensis
Horst
Augusto
Marek
##ference
XO
##rimus
##731
Glock
##Band
Kunze
Jaro
goc
zel
##CHC
3822
##dicella
combat
NGA
Vittori
##421
##808
894
Wag
##RSA
1644
Konstantinov
Lầm
BCC
mind
kor
Bahn
SRS
##697
Phò
##Mac
##ké
##fresh
Bakr
cocain
Aleksey
Pavlyuchenko
##yaluronic
Bratislava
Caterham
Cherokee
Hybosoridae
Juniper
Lausanne
Notification
Buyten
Genevie
McManam
Belfort
Antonius
McKenzie
ghè
Osmia
GTT
huých
Nahiya
Kontum
Atlantiques
Meuse
##904
##herapy
##vian
Lift
##jian
Joanna
Qead
##611
Quantum
Sạch
Chance
sật
Waters
Carolyn
Amman
milimet
Golan
##nasium
##chium
##QL
Cyr
##443
##089
##lce
##tila
##etodes
##Set
Clair
CRI
##mental
Baros
tenuis
Hatsu
Martell
Merry
##ulosus
##rail
Nect
##issimum
##năm
Bulgari
Pyo
Landes
silicone
##ký
##9500
##ccup
##singer
Vara
Avia
Niu
##RK
Gamba
Oedemer
Apocalypse
Burdisso
Dirty
Figueroa
Fontaine
Nauchny
Pushilin
Steiermark
Vehicle
Another
Falkland
Irving
Kimmese
Marussia
Rhaphido
Southwest
Penguin
Purple
Ferrara
Welsh
Please
Shanghaiist
tinmoi
Austen
PCLB
Zab
PCWorld
movie
Thermo
Paddy
citr
Products
bugi
Listen
Lùn
Kirill
Bagan
Triana
##độ
Strata
##554
##vP
Yển
##ersdorf
Sila
Imagi
kw
Bock
Gayle
0968
cafein
Rolfe
Dyna
DCT
##701
Negro
##179
Orthosi
Malia
##heart
##ographic
VAOO
BIM
##riocaulon
##069
Hedw
##loban
Rend
Arche
##Direct
##xuan
##Campina
Fruit
##ichthys
##pend
Withou
Ardi
Surround
Swaziland
Vincenzo
Valdano
Clifford
Wurst
Madhya
memory
Arctosa
MAMA
CHƯƠNG
Anthren
khều
Menezes
Browser
Cedar
Sutton
Clover
##yaka
papa
Novara
Jodie
##thuy
Ulsan
Dominika
Bruni
Career
Delete
##lingen
hydrogen
Keanu
Planch
##886
penicillin
##kiv
neg
Theft
##unov
barie
Fritzl
BNV
##osta
Neumann
Lef
Siva
Ashe
Aube
##HV
Núp
##enau
##crypt
Kitam
nhuốc
Sook
Unter
##TTS
Arge
AGM
pharao
##abrus
##ergy
##chuan
##denia
Draco
NVT
##ẠI
##UX
Sundar
##ophag
##Works
chrome
Byrrh
Cessna
Herschel
LỰC
Veracruz
phthalate
Freycinet
Gót
Hyposm
Rosenborg
Sukarno
Mulally
Dancesport
herpes
Agar
Jerzy
Koko
Streak
CSTT
Lampyr
nhứt
Parador
FullHD
LÝ
VHNT
Lèng
Mund
Jasper
lỏn
Mamic
Sammy
KMR
Lười
speed
Stoch
Rambo
Assa
##riva
RFC
##cerna
Acal
Pohl
Wheeler
watch
Rode
Lít
Campos
Koda
Rip
Fairy
Wrap
Homal
##049
##SCĐ
Willie
Vicenz
Intelligen
##pex
QR
##412
Irish
Valero
##odonta
Tomic
##omba
viridi
##erli
##ingii
##SEC
##sala
hoằn
Hesse
##YS
fat
##Taxi
WTC
##854
Trabzon
Transcend
Bentaleb
Cerylon
Domenico
Giresun
Maverick
Phunutoday
Pomorski
Puskas
Survivor
Vladislav
iMessage
madút
Caballero
underground
##ietbuild
polycarbonate
Lysimach
Flanders
Pterophor
Hiroyuki
Ùn
Edulink
Keisuke
Sundance
Stadium
Venue
Bureau
Raptor
Lineker
Moor
Saladin
##state
Davy
Sematophyllum
Shailen
NLĐO
lÃ
Ohno
Garry
Durban
##inamoto
Đục
Andoni
Leary
##lieu
88888
Tucker
##CERT
Kohler
Vander
Cabin
Joseon
##ISE
##469
Booth
##thocarpus
NKG
##627
Sính
##ESS
MDR
Trali
##ollinger
##ockey
Troglo
##cerus
Polytrich
Noir
##REA
Vivi
Santal
##749
vọ
Satra
Critic
Marit
nghè
Adana
Fabric
EMI
cub
GPA
nep
##dactylus
Afri
Bello
Broke
cylindr
Alienwa
Artemis
Alderweireld
Dreamliner
Hidalgo
Muỗi
Varyag
always
Combret
Benoit
auranti
chộn
Boutique
Oasis
LHTN
hydroxit
UCLA
Athous
device
Chắn
Munchen
Hammond
burger
Aegi
vẩu
Riera
Barrier
Sentosa
Cynan
Coming
Label
##araldi
Khalil
Xị
##236
Bios
##BIT
bridge
Thiem
Volta
Kiết
##arium
NTC
VHS
##gale
##fner
##006
##oneta
##352
##ymex
##704
##ỉnh
Katz
Oliv
Palin
##676
Mello
##pped
8216
Corner
##ĐBT
Reach
##776
Guru
Remove
##375
hoác
##CCH
##llipop
Vector
##dice
meso
Hada
Auschwitz
Belgorod
Constellation
Gennady
Latakia
Osprey
Smithsonian
Sonadezi
TOÀN
iMove
samsung
spaghetti
Affair
Dimitri
KPMG
Pedici
CSDL
Dorset
Loic
Fimbri
Toldo
playoff
Cedric
Vital
lupus
Kenzo
Higgs
rotundi
##Cha
Hepz
##pole
Riccia
Bett
Fruits
Semen
##1080
Dõ
cty
Cọp
Seaman
ankle
south
##clet
Yumi
adminh
Centaur
##416
##KP
Andrés
AOC
Drum
Judi
##onde
##251
##ẠN
##937
##urov
1495
##quoc
neuro
Niro
##finder
##ación
TBT
GLA
##TƯ
Sheff
nucleo
##cactus
excel
Argyr
KIA
Paradis
Jarvi
Abigail
Badstuber
Pienaar
Restaurant
Sacramento
Sakhalin
VFMVF
Vihear
Symphony
Clancy
Crosby
isc
Quincy
Fayette
NAND
Rodwell
##oyo
Believe
Busby
half
drap
##trend
PHR
##638
Very
##centre
phenyl
##itude
Chivas
Highlands
##malaya
##dall
MPV
Mato
##KL
squam
Wings
##globulin
SII
##mount
pauci
Galil
Pyong
Hindi
Karlie
erect
Kavin
3974
Valeri
Mần
TBD
##MKI
##optila
##amidan
Aldo
Taki
WBA
Agriote
hemi
##llium
##opia
Konstantino
Elia
##shkin
##roid
##732
Tía
MÓN
##294
##sonic
##Capital
##833
Cerv
Riviera
peplum
something
Waterloo
##elguera
Freddy
Kewell
Woodley
Leiva
##blast
Enron
##ăk
VOF
##ẹn
Wagon
Devils
BRT
##sola
##tunes
serial
Phỉ
##ELL
Regina
966
##0503
Jaap
KTV
##685
##ansky
Mandya
Thunb
Hug
##fund
Shiki
##erce
##MEA
CKD
biker
##huoc
Gloss
silica
##184
TRAN
Psilo
grandis
##Minute
##rense
##ladimir
##ppu
Afyonkarahisar
Brunswick
Dumbledore
Humboldt
Instrument
Muslera
Rhynchostegi
Suvarnabhumi
Utrecht
elliptic
hõm
Cyprin
diezen
##ammillari
Akihito
Basayev
Beauté
Regional
Dalbergi
credit
Keating
Maziya
Dhaka
Prabang
Cliff
Isère
Springfield
Novell
MSNBC
Highway
height
Stevan
Venom
Wonderland
Geek
Malv
##ccari
Hariri
##viv
##dalis
Madridista
Seal
##Mhz
##029
Cache
UDD
Nagano
Gers
##deb
##384
Ego
Plain
UCI
##marin
##561
Furam
##aporn
##opis
##deal
NAT
##cida
Bourne
##038
##FX
Arfa
Taeni
dancer
Kaga
##hyla
Xoo
##ikido
074
Mikael
##ulent
##338
FTP
Yard
sề
Oriol
##2160
glyc
Helios
##lejeunea
##EAM
Kiko
##efour
##school
Spear
##741
Architect
##bracteata
Christensen
Constantinople
Cuatrec
Kasparov
Latridiidae
Montevideo
Simmons
Speroni
sunfat
Infographic
custom
Ginkel
amip
Mipec
Chinanews
Father
PXS
##same
##635
Rodman
Duras
##spila
##WI
AOA
Emery
són
Eliot
##INEC
Foxx
##chida
Paulson
##339
##orchis
##will
##stachya
Tough
Allocos
barca
nhón
Dogs
##IGA
Elder
##itsky
##ikyo
Stig
phosphor
Asti
Paw
IEA
##stand
##079
##422
gran
đự
Harmon
Kool
IDF
##buy
IPA
##OHC
##chow
##vnexpress
sym
Actino
Brito
##hlamydia
##opoulos
Acecook
Bosingwa
Casimir
Choszczno
Ejiofor
Grozny
Hercegovina
Lesotho
Xestia
BYD
Giftcode
Cybocephal
wordpress
Dâm
RAID
Robusta
Laccophil
domino
boyband
LÀ
Madeira
Martín
Cuaron
##940
Stargard
Vernon
##eeGo
Ozawa
Gabriella
##anicum
SLK
Adler
Tourism
FAST
Levant
Jokers
Funk
trojan
Ernesto
Hire
DDG
AEK
Petrova
Alive
##taenia
Nám
##olli
##leuca
Rainer
##olobium
##552
TNG
Hatch
##724
##print
Lambrett
Chiwe
Finger
##ÔNG
##rissa
MMA
##RIS
Cerro
Hazel
##798
##lastin
Luck
Phillippine
##học
##ADE
striat
Doll
##formis
##retti
Cerci
Chew
paul
##thien
##inner
STD
Symph
Zw
##942
mứ
##499
Albright
Camacho
Michelangelo
Napster
NỮA
TBKTVN
##IỄN
Anoeta
vneconomy
Puncheon
Sủng
includ
Puerta
Schimp
SATRA
##rumors
##anucci
TTVH
Zhen
IPTV
IDJ
Capcom
Quito
soài
TỪ
Till
##plaza
Selfie
Marattia
Lõ
Sác
Cove
Batu
##608
Artur
Mõ
carotenoid
##ntino
##424
##arensis
Clock
##098
Truk
liber
CTX
Kohl
geo
PHP
Dunst
Haku
Schott
##cinus
Gallu
##combe
Zinger
Derma
##lineatus
coat
Salva
TÚ
##plast
SCG
##eyasu
Anemia
Arun
##block
Kubo
##uwa
Paso
Bolivar
Debuchy
Hierro
Malatya
Paraquat
Rybolovlev
Selecao
Sorensen
TCKD
xyanua
wikipedia
manager
Wrestle
Fabricius
unicolor
Pushkin
HSSV
nguậy
Restore
##sashimi
rupia
castane
Turia
##termole
Router
LINE
Perak
Patton
Sasaki
##kinuma
ĐHSP
FDC
Dario
##olden
Shipbuild
Root
farm
##DDC
Hamad
Orb
Flame
##endez
SOM
##wise
Bhu
Russ
CFP
Magneto
Rocha
citric
flag
Tull
##ovia
##fumi
Sommer
Mutual
Sensi
##404
##jev
874
##ơr
FOR
Valent
Orbit
##isca
##omis
##helium
sida
Armin
Parej
Didym
Vill
##ectus
##machi
##koff
Santon
Wadi
##ociete
Spell
Hỏ
CIF
##Audio
Arachni
Barnsley
Concordia
Denizli
DivX
Federline
Gyalwa
Independence
Jakob
Matxcova
Mockingjay
Mugabe
Pichichi
TRỌNG
Tobias
Vneconomy
elongata
THUẬT
formaldehyd
Activision
Ardennes
Indianapolis
Enhance
corset
Nusra
would
Dembele
Endless
Subway
frông
TNVN
Friso
Breaking
##image
Hanja
Ariana
##QH
##CCI
Xảo
script
Perch
Bonera
SXH
Shil
##omycin
##713
##chner
Strait
dp
##634
Monza
##wicz
##opteryx
##raya
Nicol
##eyev
Iwata
Homer
##067
hoản
##PCC
Chief
##QLQ
VID
##caine
RQ
##031
Laban
##0504
push
##ccellen
chrys
##liese
##acanthus
NGÔ
Lister
Platt
##leben
Seon
GTA
Jeb
Acantho
##LX
##775
Branch
##mohan
curvi
1499
Lorenz
Bride
##computer
MSB
Rú
##serco
Wilkins
BizLIVE
Convertible
Fyodor
Inkigayo
Kayseri
Tornado
xilanh
Hasselba
Kahraman
BKAV
address
BQP
Hangover
Carlsberg
Fatima
Erwin
PDP
Ravenna
##magazine
story
Dồn
nuo
Idris
Nguoi
niem
Trusted
Bostrich
##lake
Quẹ
JMA
##ăc
Citizen
##FK
Benson
Weimar
##nucleotide
##bble
Collete
DPA
Yasuo
Gago
public
viridis
buon
uý
Pace
BAS
##acillus
##tisak
##onotus
##sterol
triclo
Better
##ôtô
##RAM
##NLĐ
##dance
Kore
##562
Burk
Kure
##ubert
moda
Rash
##linda
Scra
6252
Dieter
gre
Tortric
Córdoba
Ibiza
Nieminen
Schmelzer
Scientist
Slovyansk
couture
##ẶNG
Spreng
Trichostomum
netizen
Thriller
fastfood
cobalt
Gazeta
Wushu
Underwood
##465
Bielsa
Gupta
Tronie
Kraft
Ameg
Keynes
Dantri
Teenage
Kashima
Boyce
##968
Ille
IHTT
Khiên
Sưởng
RAV
CATS
Donut
Upper
Kloss
bird
##486
Regenc
STO
##parent
CICA
VAN
HAI
martin
##2010
Zhe
Florent
Roja
##NR
##with
sever
Gụ
##lox
##oles
##CU
VIG
##codon
obtusi
##ợp
##urney
Silic
Athen
Renat
##chacha
##cacbon
Hypti
##apan
##USB
Yuen
0133
##626
##rhynchites
##yphostemma
Adulyadej
BoomSound
Eclipse
Oppenheimer
Vaughn
gladbach
graffit
mexicana
wireless
Atelier
Escalade
Telekom
photpho
Chelonari
TCHQ
Janowicz
Huntsman
Keyboard
Fonepad
Studs
florua
Northrop
Promise
Gemini
THỨC
gụ
much
Alumin
##imilac
phys
##987
##341
Benin
##Photo
##cate
##577
Kondo
Moulin
social
west
QZ
Sumer
Balta
Citimar
Marqu
Dehli
##SSA
Milor
fall
PVFCC
NKD
kur
Naru
Canton
Malmo
Coria
Saadi
##meone
Lob
##rkin
Typh
Fonda
Ravi
pate
Netscap
Crom
##Talk
##Music
Karaca
##nimation
plutoni
Aleksei
Deadpool
Internacional
Limousine
Poulsen
Rousseau
Vellozia
fructo
lức
Ixus
Nobunaga
oxalat
3722755
Andrade
Innocen
##urdack
Housing
Keppel
Giãn
Nathali
Smack
Truật
Bernama
Ventura
Piô
##szcz
##argill
FFP
##aughton
SQC
3832
##kane
honda
Igua
##OCI
ECU
Cassini
2197
Chớp
HRC
Found
##783
nigra
##rnier
##ardini
Lido
Kemal
fran
##anabe
WAV
##shir
##kíp
##enzel
Permi
##shita
EFE
Bernardo
Demona
Beit
SDF
Afel
Moda
Lemon
##building
##olystachya
DSL
crisp
print
##9999
Daw
##331
Polk
Amigo
##owska
##các
##927
hỏn
Hisham
Algiers
Aquafina
Garrido
Guadalajara
Kosyrev
Licogi
Oxfam
TTATXH
kungfu
Carlisle
Cornelis
Gloucestershire
Gossip
Tarantino
Boarmi
VMware
Formoso
Recoba
MegaStar
Plastic
ICBC
Automatic
Vasilev
Hirtz
Bochum
TCVN
##triches
Kiềm
##VVN
##647
Marvin
brown
Caleb
Meghan
ĐVT
Pastor
##kowo
Dejan
##ummy
TTĐT
Imam
Camara
Handanovi
##ACO
Niê
EDM
Xào
Rosenberg
##kyu
##elik
Agera
Pavia
Stage
Besr
Fool
Oberoni
Ilya
Hả
##lof
Eliza
Jardin
##ăl
##ulker
Loud
UPR
delta
Fukud
rgen
Sindh
SIP
##almonella
flava
Carina
Pazar
##ielac
Styl
##848
Cygn
Ferenc
GEM
Shimon
Frid
##kind
Aquari
NIS
##phile
##truong
Botafogo
Cowboy
Himmler
Maccabi
Nghiễm
Stoichkov
Taichinh
lavender
phosphate
Chastain
Fifth
profile
Dexter
tiebreak
CYP
Winchester
firewall
Silverstone
##fps
UDIC
Bundes
##ylvain
Nelly
Bleach
Darby
Minami
Philippos
2726
Grenob
Rockmen
Elber
Brody
dress
##omene
IDI
Fernanda
BONG
android
Silvia
Myrt
Kseni
Yassin
Daegu
IOS
Embra
##586
##éro
Minix
thé
Mames
##bund
##282
Tunis
Addis
##kayev
##SCC
##SUT
IMI
##kirk
##754
Kirov
Diame
beck
silicat
##silis
Kafr
aux
##Style
Layer
##blue
##shanensis
##outinho
Nichols
Rhacophor
worm
Broadcasting
Copernicus
Eternal
Fuentes
Geleximco
Hormuz
Maylaysia
Navigator
Nymphomaniac
Odemwingie
Queiroz
Shelby
Vodka
Zonguldak
partition
ruộm
Gonzagu
Tmesi
Sparrow
Federal
##phlebia
Vogt
Restyl
Trầu
Dicli
##shenko
##ECC
Sleeping
Paige
Playbook
Alfie
Corning
Taurus
##kiewicz
central
##957
##odontium
PXL
Tarzan
##simus
wave
##music
##267
0989
Hours
nitrit
##847
##QSDĐ
GIC
##otspot
Demir
##chengen
##ASA
Baptist
Perl
unit
lead
CNV
Krista
Create
##696
##rahim
Kada
Skr
##với
##erick
Monc
Altec
##984
Sema
Rhynch
sync
##curity
##qvist
Djibouti
Fnatic
Groeneveld
Jutland
Micronesia
Muguruza
Penalty
Resources
Tenyukh
Treviso
Vaughan
Augochlor
Epilobi
Pasqual
Trôm
socket
Sniper
Santorini
Motorcycle
amazon
Antivirus
Cruzeiro
MediaMart
Legion
Japanese
Bosworth
Own
Rocio
Antonella
Xinhuanet
Sunset
arsen
aspx
NNVN
rugos
Mercer
##anthum
##3200
ACCA
##641
Platon
alone
Fifa
IRS
Vario
##057
Rises
Programs
##8501
ETS
most
fb
SVC
##885
##GDĐT
Beard
##orra
Miku
VSP
Vietran
##ÚC
channel
##zarba
Rớ
##obolus
Urs
##topia
##year
Foto
Maw
##Series
Process
Graem
Balenciaga
Chikmagalur
Coppola
Curiosit
Effenberg
FaceTime
Giraldo
Guendogan
Huperzia
Langkawi
Lawrenson
Ljubicic
Riccard
Vidatox
Yevgeny
oxalic
Instant
college
Eupatori
Kém
commune
Wreckin
Darkness
Garnier
BGR
Intra
Ischn
Candela
##scutella
Learn
hý
Thicke
##dron
Monet
Alpine
Arias
Melano
Cheese
##wayne
Serum
##0506
rde
VMM
Kiki
GCC
##ogyrus
##onema
Hilario
Oliva
##rrel
indica
##ARE
##CSI
##borne
##bies
##568
undulat
##IPO
glycol
Nymph
Woodsi
Phăn
Keow
Araneidae
Hayabusa
Khamenei
Liguria
Nerazzurri
Nhôm
Priscill
Rosoboron
Walckenaeria
axetat
caliber
caramel
heavy
Kép
Menthol
Dudley
Spotlight
Digiworld
Follow
Adonis
angustifolia
Chevron
chinensis
Mathew
Bitlis
Travers
##nectes
Ritter
Training
Topshop
Ophiogloss
VỀ
Calgar
Chapelle
Border
TNCD
##foot
Halict
WAG
swing
##arlyle
Sakda
Vanilla
Gậy
Danilo
##PY
Viktoria
Sắn
##urassic
Crop
valentine
Prize
Pyle
dậu
WBC
SSG
SCN
Shape
CFO
##869
##issin
Shear
Amit
four
abc
##ská
Zieg
Hymeno
thè
##cribe
Jara
##TECH
##834
Odont
##hofen
Hoshi
Rả
Harbor
Sibu
##unzel
Vinashinline
##YO
Cholesterol
Hyderabad
Sassanid
Sorbonne
Zaccheroni
reducta
Distribution
ghost
Dipterocarp
Eryngi
student
hydrocarbon
Titanfall
Radlk
##hospital
huỵ
Kospi
MoMo
Steud
Naked
Annette
##ensive
NHÀ
Tryon
Beauties
Walid
Kbiz
capensis
vocal
Buick
Barker
Sharing
Ehome
zce
Balance
magma
Probook
Cordon
Mimosa
##FW
##hablet
Lobo
EIC
Philan
Naver
Rusal
##aszab
Packer
##west
Mochi
Tadde
CANH
Wilder
##FEF
##ÍCH
##position
##gear
holo
##KQT
0982
##VJ
##udoku
##tsugu
##plica
Benito
Salih
##651
Jive
##ĐTG
Kamikaz
Trạc
Eunidi
##998
Carens
Advoca
Amalfitano
Cosmopterigidae
Elephant
LƯỢNG
Thraupidae
Umbrella
Weasley
Yakovlev
Phyto
Ancona
Champasak
##ezirk
Masayuki
THỦY
Harbour
Cullen
Carmona
Unikey
Machado
Rubber
Turtle
##rzyn
Setup
Bukit
Piacen
Amanita
Corby
Kroc
GĐTT
Thurman
##ignano
Carmel
Heung
Politic
##ouche
OTP
Kimono
##carb
Pò
Gagarin
Loir
##ulifera
##gulus
##654
Verti
##633
##uperbike
Thuân
0932
Nabi
indie
##ugin
##581
##reck
Verne
Sarco
##thuc
Arec
Murat
##ggins
Imperia
Britt
Romagna
Patch
Grind
Rodger
VTT
##sense
##bris
Adriatic
Alessio
AnTuTu
Aspalath
Burgundy
Hermès
Iturra
Labrador
NGÂN
Northampton
Reunion
Scherzinger
Shepherd
Suffolk
Uribe
instagram
soundtrack
QUÝ
Rót
Smaug
hPa
Osbourne
Profile
##olloway
Gigabit
Architecture
Raytheo
HEAD
Antoinette
##ÔI
Features
##aldwell
##edulinks
graphen
CHDC
Troóc
CCQ
Thạo
Squad
Achille
Azul
Naoto
Harmony
sessili
Poecil
##lski
Dolls
##osceles
modul
##ARD
Mellon
Kẹp
LAI
##SMT
decal
slow
##soccer
##lepid
Orta
0986
##bashi
##075
##8500
Combo
##mination
##tanium
Jain
FOX
##ignac
Peer
Karma
##TTC
Pả
##tutu
Nitro
NPD
##okyu
Machu
##agami
##ĐN
Prion
##udge
pyro
Agro
##genic
##dington
Michu
##Guard
##167
##896
##IÊU
Barneby
Caravelle
Descartes
Executive
Hudgens
Konoplyanka
QTDND
Sarajevo
ShowTopic
Testosterone
Tsarnaev
ĐOÀN
ĐỌC
Nirvan
Oswald
Mokpo
BĐVN
Hilbert
Saeed
Seydoux
Margot
Energi
Tatiana
Maruko
Astana
Garrett
QUANH
Copper
Malone
##lycosa
Nặm
Wahid
Dalton
dihydro
report
fusca
TÍCH
0974
Redmi
Tauri
great
##anthidi
Bernhard
Kurz
Antonin
##812
##lín
##883
##548
Pluto
##zôn
Suzuka
chể
##nahalli
##ĩnh
##Tran
##hamrong
Northwest
##595
##hằm
##emme
HDI
##neas
##onitis
MDC
burn
Jimmi
Chồn
Strabomanti
##hulalongkorn
Bronckhorst
Caribê
Cunningham
Dniepr
Hiddleston
Kraenzl
LiveScience
Novosibirsk
NĂM
Puebla
Staffordshire
silver
Kaufman
Kaladze
Revenge
LeCont
VAMM
Drift
Rhett
Khứ
Safety
Stadio
Kamui
##691
Rubella
KHKT
chẩm
oversized
##Art
Agnes
Sarthe
Python
Kakashi
Janice
Diario
Myrmec
Dangda
Chicken
Prông
Firt
Wight
hiep
Scul
##DMA
Kindb
##IBT
NLL
where
Deux
POR
##quist
Damen
##967
Sabre
Kofu
papill
Zubr
Hend
##SQL
Indoor
##033
##AAC
##blade
state
##dragon
##hammer
Fond
##sepala
Salma
Rosenst
##965
Burch
Tepe
Administrati
Baghdatis
Belgaum
Bolívar
Cumberbatch
Magdalena
Mandalay
Mogadishu
Partizan
Porphyrin
Swanepoel
WXGA
before
Tienphong
sapiens
Mykola
Wakayama
BKIS
Drepan
Schiller
Turbin
Thread
Brabus
##ability
Vanguard
Zarate
Thát
Susie
Cephalo
Harding
Duyện
Gatlin
Kẹt
Mortal
Barrack
##igami
Mullah
Merlin
Tintin
micromet
Bergen
Reef
##rza
Savior
Rocca
##572
##bayev
GIF
##Ware
IMG
Rowe
Thief
Leste
HTVC
##smia
Schil
##ehl
thừ
TLC
##Tab
##484
##unce
Zaw
Thằn
Toyo
Portal
##honburi
Hydrobios
Alcaraz
Because
Discolomatida
GmbH
Gwangju
Navratil
Paracetamol
Snodgrass
monticola
ribosome
Delgado
Aishwar
Triaeno
Umarov
##itchcock
Microwave
Firmino
Beckett
Accu
Erawan
TouchPad
Calcut
Sheryl
Psychomyiidae
##spresso
Hicks
Asier
##ẪN
Nasir
Trigono
BUV
Linton
Maeda
nickel
hidro
Bromeli
##663
Alamy
Cantal
GHB
##LY
Cotton
0943
Rubik
Pelé
Finch
Daley
##iểng
vố
##ulosum
##iavel
##garden
Syed
##prise
##932
step
##urgus
VISA
##argus
Glei
Levitt
##The
##hanchu
McNaught
##logue
##791
Suzu
##uscula
##thucuc
Pozna
##einer
##finger
Guangzho
##arelli
##639
IBT
Kuban
ign
PHÚ
Eusebio
Gehrels
Hertfordshi
bongdaso
dỏng
premium
restart
Corticari
Wikimedia
tienphong
Culture
Quezon
##venpick
phị
CERN
Snoop
Stories
jeep
Inception
Harlem
Turkish
KHOA
Soleil
##vittatus
Nicosia
Aliyev
Weimann
Aphel
could
Ehren
Hoover
Medusa
Mirza
xẩu
Larue
##uôl
adren
Ozone
BỘ
eury
##081
Nagy
Igla
##arleria
##843
ĐI
Cary
##dhar
Scigli
##zik
##ervez
pallidi
##332
##metha
ICG
Segund
Kirin
##gnon
Ballet
buff
BBM
##oách
##pteron
##labus
##anense
##liance
Potam
Handel
##khta
Maris
##074
Jodi
##dahl
Sendo
Associate
Zale
##encak
Azzurri
Cynthia
CẢNH
Dangerous
Honeycomb
Inoue
Trujillo
ZDNet
access
cruiser
Lủng
Database
Rouhani
Laporte
Nagatomo
walker
Sabrina
latifolia
Wilmot
Current
function
##52597
weibo
Carpath
Cresson
ISBN
value
Villareal
Szczecinek
Poppy
Lucern
Parris
methane
##342
VinE
job
Meione
Eddy
##Black
Nicobar
vÃ
aureo
##fusca
Akita
##speed
##urier
##hromis
##AXA
##UZ
Optom
##000520
pico
##invest
##MPO
ché
Bering
##owicz
##ropoda
adj
final
##urosawa
glabra
##éné
Siege
##tatham
##TĐT
##derman
0978
##alda
Lử
Autodesk
Estrogen
Invincible
Koszalin
Myskina
Paracels
Ratings
Safarova
Thwaites
Travolta
TÂN
YẾN
californi
catalogue
Xoá
Dò
KHÔI
Ishikawa
aureus
Matelea
Dicranota
john
Rocchi
Plamen
##ongensis
Aleut
Ngục
Thaek
Palmas
LẠI
Zonda
Bowell
Rojo
Menzel
Crime
CHÂN
Ebay
Rail
Hakim
triangul
Gauss
##versity
Temno
##lapa
DVT
Scheer
Ricki
##entina
##nefer
nả
##clava
Olic
Soric
##euth
ICO
##ogramma
RBS
##outeria
Selim
##uabin
##804
##brium
Seyd
##taker
pack
Merck
Chậ
Taira
##Home
trạn
Merk
##OSS
##IỀU
##isongphapluat
Aladdin
Andalucia
Díaz
Emergenc
Esquire
Hennessey
Huddersfield
HỮU
Kadyrov
Kamchatka
Kathleen
Naipaul
NutiFood
Pleistocen
Ponomaryo
Steenkamp
Volodymyr
Warfare
Wollongong
Étienne
Insurance
Ornith
Impact
Ambrose
Flint
Lorentz
Vlaar
Ducanh
Nhũ
Arctia
Desert
Donnell
Tiote
Rural
VINH
Juliette
Sanctis
Lothar
##fjord
filler
Enix
Klaas
Teodor
Luala
Depot
Whiteley
Cerop
##raneus
Grigory
Nuốt
##ravel
Szcz
##Note
##TNT
##gold
Reinhard
Nepet
fili
##ophytum
##planet
Scholl
Tiber
parabol
Beech
Velasc
##Down
KSA
Rabin
##973
Chain
##watt
##879
##tropic
##uxton
##DEX
##884
##hadov
Genie
##lub
##mitra
petro
clan
rỏ
##OEL
Quạ
##Print
##good
Excite
Balmain
Chihuahua
Estadio
Excellence
Fluminense
Giancarlo
McNamara
Swinburn
THÊM
quặp
platform
zircon
##ompetition
NamABank
Magellan
##ÂY
Ultrapixel
Digitimes
Matija
graphic
Miyagi
Senderos
Spectra
Volume
Pohang
Sheila
##cruise
Around
damage
Gaulois
peroxide
Emotion
Handico
Gotham
Chill
0905
DHL
Yorktown
Puea
Larsen
bloc
Arya
Tsuki
##ranga
khì
Nomi
Kalla
Brass
Vader
Zarif
catse
##dreva
Yamada
Caspi
Teera
Hind
Bartramia
##ATA
##0495
##AGE
Gordi
Cycle
##oglyc
KHÁ
tuý
Held
##Player
##urry
##695
##ithridates
Accelerat
Aguilar
Cocktail
Extremadura
Hussain
Kalimantan
Moschino
Northumbria
Rhapsod
Tallinn
Wozniak
acrylic
ronaldo
##visión
Dufour
Ludovic
WCDMA
Kumamoto
Method
Yamagata
Jemaa
Charoen
Catalina
Enzym
ESOP
passport
Dongfeng
Croix
arsenal
Marchionn
Picchu
Taeyang
Hyomin
Feeling
huơ
Mantova
Oblast
Fredrik
Eurosport
Fraction
McMahon
Hatay
Wonsan
Tũn
##daphne
Sharia
##graf
IOL
##lute
##ssé
##1209
##hyreus
##IDI
##795
Fournie
##maker
MTK
Inge
##rginine
large
Bohr
##ouffran
##TTN
##ddie
##hopdie
##pierre
##Store
Abenomics
Begiristain
BlinkFeed
Gleichenia
LƯU
Makhachkala
Mikoyan
Scooter
Tchaikovsky
Veltins
Caitlin
Organization
Oviedo
Reserve
Yaros
Desmond
Colchic
botnet
##guttata
Varela
Huề
##ÂU
Rodney
Arcade
McEw
##iglia
Khuyển
Whitman
##cephalum
Reeva
##urious
Mackle
Mittal
Bashir
Nauru
##IAAF
Nghiền
##writer
##rilling
vanilla
Basile
##orex
Prenn
Item
Rhag
Fuel
Mamma
##643
Rule
##drina
##config
Solana
Susu
##983
Paragon
Palmyr
##panda
##wil
##2013
##thrix
##lophus
Amour
Ruslan
##CLQ
Peas
Murano
Capote
##mitrium
##adine
##0514
##vista
Wach
FMC
Charle
##etanol
##Boy
##ynx
##ndiano
##peptide
##udu
##pleurum
Beagle
Confession
Electra
Ivanisevic
Kauai
Millennium
Philonotis
Phoenicia
Rhythm
Routledge
UMTS
Vuvuzela
Alstroemeria
Lhasa
Spotify
parviflora
Vadim
shutdow
Bkis
Gothenburg
Myristic
Salerno
Commission
Dassaul
Balzac
Quality
blank
Ulrich
Hyperoli
slave
Ferula
repo
Weight
Classbook
Yayla
Boucher
Column
Onoda
Nutri
1002245
Plzen
AVF
##ukada
##arncke
Yoland
QGP
Staff
THV
DRM
##araku
Stevenson
##etok
##tepec
ĐBP
##arese
Rubu
Crack
Sept
##poel
Granit
Holz
##awad
NEO
##utlu
Garen
##effer
PCTP
##rifolia
trench
Borgo
Allophyl
##tlán
Ranking
Reuter
Celadon
Istomin
Kirilenko
Lakshmi
NewYork
Oscillator
Overdose
Ponomarev
Réunion
Savannah
Schindler
Yvelines
Complete
Davao
Hossein
Lachey
##égé
Beograd
AppStore
Yankee
bookmark
Voinea
Croft
Doosan
##ALA
Rafter
three
Archive
Zelda
Reggio
microgram
Oceanbank
##opcast
GMAT
Aprilia
Howell
Baraja
Cowan
KLM
##veld
##bien
##rhiz
diversi
##zhan
ITU
##racker
PGM
build
Euryop
##00484
##putin
Tusk
Tyre
Welch
Borut
##OUR
##lotte
##ovine
Strange
##QPPL
##LOS
Cade
##ogramme
Folk
Pontia
0917
##putr
Thorpe
aequ
##adding
Tape
Lauder
Slovak
Siê
Ascalaph
##Moenchengladbach
##gimbart
Aphrodite
Baikonur
Bonneville
Haixun
HẾT
Parubiy
Piqué
VAOOOOOO
VNDIRECT
Vergini
frutic
triglyceride
Catocal
Invitation
Subotic
Loving
Girard
Shepard
Cascade
Baikal
NOAA
feature
##rmitage
Bernstein
DANH
##ẬN
BLTT
##dentatus
vtc
national
Borges
Lèn
pít
Ochs
cẫn
##gườm
Libre
hịch
##tinib
##pteryg
Dilma
Libra
Horner
##lăng
Milne
Robyn
feat
##first
Alegre
ortho
##rkis
##SKH
##pinna
Gira
Echino
##omorphus
Bosco
##abaul
##adler
Botanic
##ESLI
##info
##repis
##nervis
Đượ
Olli
Pitch
##lás
##818
Strato
Aduriz
América
Budweiser
Chemical
Djourou
GIẢI
Hikaru
Kinabalu
Lyudmila
Molniya
Olsztyn
Splendor
Zellweger
international
thoitrang
Cartoon
Heights
verruc
Agriseco
Essential
Hapaco
Ulysse
enzim
Barrios
Gainsbour
Thinkpad
Brawn
Seohyun
Mathias
polyester
Gangwon
Optical
Krupp
Shogun
NSAID
Agapet
Shoemake
Nhỡ
ngâu
Orochi
Through
Chướng
Hiroki
EuroCha
titanium
Arabica
stent
Prison
Tomato
griseo
Vandal
##olepta
##phyr
human
Ailee
##877
##ietbank
Chateau
##themus
Bryansk
Exit
##insider
dác
Maksim
##903
rubro
##caule
Lour
spic
##logic
##dotel
Kesha
Orchid
##vihla
testace
##ulsar
Parade
Aslan
##HNT
##Center
##duction
dứ
##VNĐ
##cated
Seow
##hodniopomorskie
Arirang
CHỨNG
Claudius
Dreyfus
ElBaradei
Irvine
Luffy
Mallenco
Marwijk
Merriam
Mihajlovic
Rajagopal
THÚY
Twenty
UKEAS
Yongbyon
Zumwalt
Teuton
education
Evaldo
NYTimes
viêc
Fujimori
speak
Kombat
Helsing
ombre
Caramel
##894
Harald
Ledley
Persian
Nozza
vinyl
Ambly
longipes
gangster
Kosterm
Sensor
Gaara
Ginter
money
Arden
filter
Eniw
Malthin
Piotr
##Caption
Merino
##ANTQ
Prinz
Equal
Slavia
##koku
ngợ
##llant
Sull
##rote
##ichener
##933
##illé
##agno
##986
##élé
Triê
##096
##0499
##857
##olol
##obey
##inaldo
Wilk
Damia
rvi
BASIC
##uareg
##reven
Magnet
##arthru
Moure
nhữ
##ombe
Silv
Aquila
##arica
##ĂN
THỨ
Arnautovic
Ashkenazy
Buzzfeed
Entrepreneur
Extinction
Faraday
Gourcuff
Hiphop
Hutchinson
Iskander
Jaejoong
Jankulovski
Jatupor
McEnroe
PVGas
Resolution
Spruce
Tunceli
Wrestling
xtrây
quinque
Kuchma
Nxb
Sikkim
Melandry
Otofun
Sheridan
insularis
Stacey
SDRAM
Beacon
parallel
Abyss
CarPlay
Harrier
BQLDA
Comcast
Bellucci
Unreal
Cyphon
##okratis
minuta
Fortuna
Vasep
Oul
Sandberg
Wintour
Musashi
Palladi
Comedy
ICQ
Trident
Bronx
Niels
GenK
Kieu
##bottom
Sandal
##marginatus
sala
##USE
Austr
##wada
##aglie
Roxb
Crash
##iggs
INF
##ethane
Hakan
##865
Rangel
##ooyoung
GRE
fascicul
##evsk
##biotic
##891
##Eye
Abdulaziz
Bulgary
Circuit
DigitalGlobe
Dulles
IGARI
Komsomol
Letsgodigital
Lugano
Lukashevich
Manufactur
McAvoy
Montessori
Nainggola
Orthotrichaceae
Parreira
Probiotics
Stonehenge
Zanzibar
giftcode
pixie
tryptophan
Mystery
McDonnel
Ageratina
GIỮ
Hirsch
thanhnien
Mertens
Maracana
probiotic
sleep
CSKV
Acrobat
Picanto
Monarch
Sigismu
nơtron
Cellphone
Arlington
Pennant
Lacoste
Toyoda
Nhù
Norris
Dunkin
Makassa
Socola
Skyphone
Norma
Munro
Forward
Shinsen
Touré
Evita
Karaman
Freak
Couto
nking
Loft
Draw
sulfur
Sherry
Saxifrag
Zav
delicat
##ascar
fusci
Daniil
Heracle
Favi
Rahim
##oyle
##tropis
Stepan
Stav
##wave
##SNS
Bruch
##owii
Charl
##ccq
##gnano
##utzen
##phenol
Tyrannosaur
Calci
luteo
Semb
Kabu
dọ
Octavian
Cocu
impress
5449563
Albrecht
Commercial
Cupertino
Edirne
Fokker
Insigne
Observer
Sessegnon
Frederik
Episode
rossoner
DĐDN
GIỜ
##drenaline
##nalysis
Briggs
Villepin
Salping
Melzer
Holger
Walther
##meister
Cowon
Marissa
liễn
##Govern
Syngon
Jansen
AMVN
Pusan
Feet
DQC
Hallow
Gregorio
Casper
Garage
##HẦN
Marchesa
Admin
##shka
##CMS
linear
Bolbo
Chămpa
##50748
##flow
##Sky
Rizal
##576
Prain
##ediamart
Breit
granul
##aleyrod
##ubitz
Roar
##centra
##VHTTDL
actin
Ngụ
##sexual
Banerjee
Chelyabinsk
Coelho
FECON
Kanoute
Klotzsch
McAdams
Vendée
Zizou
cupcake
splendens
Dokdo
Kedah
language
##methamphetamine
VLTK
Jeolla
Stapf
future
Zachary
Demetrios
BEAT
CHIỀU
##hydrus
Catarina
Veneno
whisky
Ramsay
Fabien
Automobile
Vilaine
Moretz
54495639
Hibisc
##rovsky
middle
Halida
Arras
##othrix
Everon
##ikud
TTH
Reign
Innovation
Bergman
##cinctus
Kalinin
Nướ
##về
extra
##czyk
##membran
Cheol
Comment
Desv
##striatus
##ków
##Path
##sheet
##look
river
##0314
antenna
Fermi
Benneteau
Calmette
Ceylon
Doherty
Ecstas
Gagnep
HẰNG
Kafelnikov
MasterChe
McClellan
Methadon
Peshawar
Prescott
Socrates
Tolkien
Transylvania
WireImage
comarca
corticosteroid
nĩa
rufescens
vonfram
cuspid
Drawsko
Galapago
Gentleman
Yamashita
porphyr
Worthington
Sophroni
display
ferruginea
Illarra
Wildfire
Degree
GameCub
Upload
Astrakhan
Bubble
NHẬN
Heywood
Josip
Barbaros
Westlake
Reilly
TTYT
Konrad
Padova
Murder
Okio
Makino
Gifu
CHND
Shuai
Osius
Angelica
TĐCS
Morley
Falling
Fallon
Ahmet
##ocean
##ucak
##raud
Lucarell
Prze
Dunk
##806
boongke
##osorus
fel
##EGA
##ochromis
##344
Ngẩ
##triệu
##ficial
##ommonwealth
Aldridge
Alessandri
Charlemagne
Christchurch
DARPA
Debrecen
Edouard
Elijah
Gómez
Hedysar
Hurricane
Neighbor
Newscientist
Nimitz
Penthouse
SKĐS
khụy
painting
trumpet
widwin
pulcher
Piketty
Plectro
message
Cosplay
candida
Dombey
##euxoa
Antigua
Hofmann
THƠ
Epstein
DIGIC
TRÊN
Tchad
Verdun
Askmen
Rescue
Kenyon
Offline
Bastion
Anchast
Touchpad
Chinadaily
Grandmaster
Export
Chinatown
##elipogon
Kavak
Hutton
Sankei
Ponce
PXA
Shwe
gross
Clamb
##rhinus
Khela
##SDXC
Gavr
##omyia
##SATA
##EXR
##ươl
##ÁT
##NSW
Vivien
##947
##ostola
Lulu
##oepp
##Point
TIME
##apoue
##floxacin
Amoled
Braxton
Geldof
Moldavia
Osiris
RoboCop
TỔNG
Federation
Goliath
Partition
Pekerman
beautiful
Kashiwa
present
Thunderbird
Zhirkov
Dupont
fimbri
Phreat
Saitama
Humbert
Freestyle
picture
playlist
Agatha
Elaine
Nueva
##tarsis
Construction
error
Hayashi
Quắc
##ORE
Knorr
Breton
##MNO
sultan
##umrong
Zahid
##shoe
##nosuke
##sphere
##laz
##signatus
Habib
Glauc
##ception
##PRO
##onymus
##OY
Regis
Optima
Rafale
##ĐP
kute
Suracha
##arenko
##kuyu
##Live
##lomis
##rnaud
##melas
##rrle
##Matic
Solution
7300563
Alsace
Antlers
Calderón
Certificate
Chitradurga
CƯỜNG
DisplaySearch
Gizmag
HACCP
Informatic
Lebedev
Lleida
McFadden
Parlour
Rembrandt
Shizuoka
Sikorsky
Spanish
Thousand
Vinachem
pacific
Corsair
Khoahoc
##shield
##stomum
Cromwell
Farame
Circus
Costume
MLee
NHIỀU
rpm
Populus
Gorky
generation
Berlinetta
Unique
Deutschland
Klub
Thales
Lynk
Galeri
Mullin
Boehne
Luxor
Roux
##tniss
mittin
Salmon
Phoebe
Barkha
Filter
TRÍ
##neft
Ilha
Ashle
##florum
##sthenes
##holz
##ecce
ngú
Leave
croc
Skyline
##AVI
##ATT
##HỮ
Primar
Arthro
##sembl
Setting
Amblystegi
Berahino
Bogotá
Bombardier
Euphrates
Frédéric
Giovani
Hilliard
Khabarovsk
Luftwaffe
Mackenzie
Margarita
Narathiwat
Orléans
Raichur
Sevinch
Tomnod
UNHCR
biogas
lanceolata
prostaglandin
saigonsmiles
speciosa
3933321
Mighty
Segovia
VietjetAir
KienLong
folk
Rybak
Valdez
Manhunt
Charity
Blazer
Fontana
JFK
Kuroda
Arrigo
Kazakh
Buena
Premna
Bridal
Miccol
Daft
curr
Anchor
Depart
##asianthus
##unting
##XIII
Eisen
##circ
##nigra
Killing
##atias
Olu
Pile
##perfect
Halim
Winni
Jark
##SUPA
##rall
TRÀ
Terme
Infor
Groot
##Work
##central
100049019
1900571239
CNBLUE
Drenthe
Dzhokh
Ectoedemia
HÓA
Khatoco
LEAGUE
Piauí
Quicksilver
Rudolph
Savannakhet
Tekirda
Wallonie
pylori
yunnanensis
ĐỘNG
Lewinsky
Bamboo
Toscana
Galactic
frigate
Azarov
Kwok
psych
Oversea
Ripley
Wonderful
Nuevo
Barnett
Berardi
Kherson
austro
Silence
Arkham
Funny
Iwate
##ebrionidae
Framework
Postiga
Ayato
Hinata
218322
Dayana
##antonio
Theodosi
##antsir
##jir
distinct
##irewall
##onomy
Tartar
Belgi
##uỗm
##eisler
##glomerat
##TKT
##phili
##IMA
Write
hydroxyl
##zynski
Writer
octan
Gymnogramm
##574
phướn
##werk
##orbus
Malth
##costata
Ngò
chã
Haryan
Rhodesia
THỦ
benhvienthammy
##ulbostylis
Amorphophallus
Anniversary
Boulevard
BÁO
Cappadocia
Cardozo
Cuarón
Daihatsu
Dickinson
Doppler
GCHQ
GDQP
Germanwings
Kiefer
McDowell
Pedersen
Peggy
Sakarya
Staples
THỎA
Tipsarevi
Turnbull
Vlaanderen
WRX
Widodo
Worcester
registry
Plông
Zawahiri
baggy
Dietrich
SWNS
Schiffer
Metallica
Jericho
##saccharid
discolor
Comoros
TMDV
Clapper
Toulon
Whisk
Hafiz
Waterhouse
Khairul
##ophryne
CHÍ
Cydia
Colgate
Bernardino
##plicata
Truss
Mandevill
Yenik
Abidj
Kotex
Kandal
Gracie
HyperX
Daband
Hipper
##giopteris
Kristof
Abuja
Holder
Rhaph
Kenne
Raffaell
Graner
Arctic
##zé
##scheid
lign
xanth
Surf
crypto
Georgin
Brink
##lcim
##reyer
##steleum
##bayashi
Ukrain
đâ
Colomb
##culture
##Force
##Chrysler
##Quest
##ayaga
Polyplectro
##abriolet
Bayburt
Boonsongpaisan
Cartagena
Ghraib
Groningen
HƯNG
Indochine
Karlsruhe
Khartoum
Overmars
Renaissance
Rhaphidostegium
Rusedski
Shinkansen
Sèvres
Teixeira
Treasure
Webphunu
iSuppl
tphcm
vovinam
wedding
Êđê
Glitter
Renauld
Rhipid
Beatfest
Zavala
Marketplace
Astrid
grandiflora
##elaphus
COPD
Tacoma
Expert
Perrier
Murillo
roadster
Noriko
Maurer
ANĐT
Takeshima
Bunny
Warburg
Gomph
Hodge
Interface
Husky
Horton
Patty
Notioph
Whole
ceramic
##asebo
##credi
##zole
Thề
Almaz
Salsa
Soobi
##CEPT
##remophila
míttin
##hrmann
Ruell
##oảng
##dencos
Constantinu
##ickard
đễ
##8888
Fatal
##ndersson
Rodin
Venture
ASIA
Gloucester
Antigonos
Asclepia
Yekaterin
Coonabarabran
Milwaukee
NewIPL
Otesalycool
Palmeiras
Phonearena
Photographer
Prestige
Siluanov
UltraPixel
Viettinbank
africana
because
eczema
hryvnia
nghẽo
10023121
Andromeda
Minecraft
Ratchasima
Erigone
Railway
Speech
Usagi
antifan
Bianca
##ÙI
McCull
Rovio
VIÊN
Trentino
Ariane
KHANG
##ỨC
##lockchain
protect
Artvin
##psilon
Rockstar
Moritz
CAHP
Nasr
##orawitz
Gentra
1002161
##arden
##struction
Velez
minuti
##MZ
##MIS
desert
##EVC
##lumbu
##ỔI
##roque
Rydb
composit
Stack
##apoder
Jenas
##hanquoc
##ohd
Organic
Moravia
##Sphere
ukur
Severin
Joanne
Aksu
linearis
khù
Abbot
Rohan
Casilla
##Flash
Acapulco
Bosphorus
Chopard
Desolation
Expendables
GHPGVN
Guevara
Huoai
Lakhdar
Nièvre
Pashtun
Pizjuan
Portugal
QUÂN
Rousseff
Sotnikova
Taecyeon
Transnistria
UFJ
Zimbio
acuminata
salicylic
tomentosa
variegata
Cronquist
Thracia
keratin
##cysteine
Wilfred
Nishimura
Nehru
Runaway
trackpad
Spezia
HHTG
Cochran
Holyfield
Crowley
Everett
effect
Vergara
proxy
Jewelry
Mirren
Blaster
Bharat
virgin
Djed
##IFT
Angulo
Hartmann
Buddha
Geremi
Nieto
Woj
Kasper
Isabell
##halanx
Guerra
plugin
##adillo
Laurel
Bulav
Ángel
##entris
##derian
thạ
##sperula
Kelle
kanj
##entz
Tharo
##cantile
##wagon
##lled
Wedd
kron
electronic
Minard
Orlov
##ĐÁ
Abdeslam
Bierhoff
BitTorrent
DisplayPort
Dnipropetrovsk
GsmArena
Heikki
Hernández
JBIC
Kommersan
Mehmed
Muscicapidae
Ngứa
Novorossiy
Ranocchi
SISTAR
Sesiidae
Sihamoni
Sutherland
Tursunov
default
insignis
Calliotropi
Chávez
Giacomo
Gironde
Hildebrand
Twitch
Donatella
##ryptantha
Proust
Raglai
Seongnam
Geogre
gigantea
dienmay
Frontale
Karolina
##oxylum
CBTT
Kaoru
Nathaniel
73005639
SKY
##onycha
##arrot
Haveri
Kozak
Akash
Chipse
##nueva
##BTC
Nestor
Kaned
Northwester
##spacing
Cyrto
arist
detect
Kappa
Meliss
##coccus
Woll
##0509
##ocaulon
##affin
fasci
##Watch
##follow
Ichthy
Arisaema
BLĐTBXH
Boulogne
Dimension
Flinders
Montverde
Multistrada
MỘT
Ndjodo
Paparazzi
Publishing
SportMail
Weaver
Wrangler
ibuprofen
lossless
Bachelor
Dialeurod
Marlborough
women
Gremio
Laboratories
BHTG
Lourdes
DKNY
Voucher
BCVT
Sprite
niacin
Corradi
Burdur
Woodrow
Venetia
Bangerz
Letterman
nguoiviet
Atwood
Takuma
Caravan
Punch
phịch
PTTM
select
Ricard
Afrika
Pleuro
lutein
Creation
##nthrop
##ehati
erythr
##pression
##KII
##Shop
##ƯỚI
Asturias
Bocák
Esmeralda
Goddard
Gulbarga
Général
Humvee
Katharine
Keaton
Otamendi
Querrey
Semiconductor
Shizuka
Unchained
ViewSonic
gardneri
interferon
pusilla
Vietsov
tuvanonline
Cavalier
Matilda
OMAP
Legrot
##rhein
TRẺ
coffee
Rousey
cadimi
ASCII
Salazar
Pegas
96416
Highlight
CHUNG
Henning
ANSA
Herpes
Mobilemag
violet
##grove
##acbonat
Territor
Uzun
Valentic
##report
##shford
giặ
##RCEP
##INCO
Weekend
##llrich
##celle
Grudi
Virtu
##issimus
Musab
Sanfr
##diva
##osmyl
##UNet
##family
##hiều
##để
Cebrio
##nvolvul
##halassemia
Brezhnev
Hidden
MỚI
Naftoga
Province
Rosemary
Sloboda
Unbroken
application
ochrace
reticulata
Liszt
3726193
Dynasty
Dodig
Hutchison
TRẬN
Caserta
Ribeiro
VEPR
Vaccine
START
rhomb
Baxter
humilis
Oddity
Kezman
Ridgewell
Grenada
Kanagawa
##esleria
macrophylla
Mastercard
Daisuke
##zadeh
Magnussen
AirPlay
Promotion
obez
culé
Geith
Serama
##silat
##acre
Bowman
##002251
Courier
##aynor
Cybi
Bauman
##lcis
Priest
creatin
Revel
##ephanus
##ultur
##design
##ecco
##tincta
##price
##simov
Ptycho
Pycn
Coopmar
Anthidi
##849
##mastus
##anô
QUÁ
##Salle
Jarn
##volution
Deshchyts
Akhmetov
Cochinchine
Daphne
Hérault
Mystique
Nefertiti
Polaroid
Privacy
Shostakovich
Simplici
information
riboflavin
rupestris
XMXT
3832841
Jaaskelain
Glaphyr
BeeTalk
Astronom
Millionaire
NEWS
Chalabi
Palazzo
Reebok
Pooh
Yellowstone
Present
Memories
Shikoku
jihad
THIÊN
Monument
Paradox
Sihanoukville
##chaefer
Munoz
Phichit
hoăc
Apink
council
ASIAN
Villers
Goerge
Horror
Aybar
Scene
##sername
Myrsin
awno
silk
Movement
Thér
##medeen
StudyLin
Aulet
Aqs
Bryce
Merida
##dendron
##yayla
##uriram
nanomet
Polansk
##gadget
##hể
##cycline
Tomkin
##ennington
##elton
##ragana
##loramin
##ebron
Lumin
##awski
Abaúj
Baengnyeong
CHELSEA
Chanyeol
Clermont
Dolores
Esmeron
HKEY
Hastings
Heechul
Iquique
Maybelline
Montréal
Nizhny
Noyce
Pueblo
TOTEM
TRÌNH
XNCB
Yesterday
podcast
spectabilis
KakaoTalk
Prokhorov
Zodiac
UnionPay
Hormone
Scientolog
Masayoshi
##guaín
McVe
Neustadt
Grampus
standard
Hardware
Lumpin
Jatroph
Culkin
Rumble
Broadcom
Brosnan
Guiné
##therington
Boyzone
Cushing
Janssen
Gaillard
Ceylan
Oskar
##notatus
##luxury
##hesma
##ujimoto
##stipula
##ochaeta
##rekking
Jacque
##allicarpa
##480201
Bertol
Begu
still
##SGS
##capella
##khanov
dolicho
##orella
Toilet
##llensis
Frod
##tribution
##IMPAC
##between
##rrhynchium
Addiction
Aronofsky
Benoist
Brahms
CHIẾN
Coachella
Cornelius
Dôme
Gabashvili
Gesneria
Guilherme
ICIJ
Monterrey
Olethreutin
Othello
Portrait
Rabiot
Recife
Siirt
Smooth
Thethaovanhoa
Unpacked
Valkyrie
Wisdom
prolactin
ttingen
Adesmia
Brabant
Carscoop
Dalmatia
Raphidioptera
Toyotomi
BkavHome
Digest
Escude
Bactria
Stockdale
XTTM
corbis
VinMart
Agnelli
##340101
Steffi
BINH
Unesco
Sweat
Healthcare
Reference
Gazmin
Attagen
Edifi
remove
AmCha
Deshchytsia
Brewer
Breast
Madras
Kannad
1002294
1002271
##iltshire
##ogossi
Rivière
Marques
Microlepi
McGill
Pipil
##dientu
##undell
Focke
##MSDF
##curta
Winkl
khọ
Faiz
lử
##etsky
Extende
Aksaray
Borsod
Cavendish
Cotillard
Ermisch
Guettard
Lagrange
Llodra
Married
Meredith
Pyrenees
Shibuya
Streisand
Studies
WiMAX
Wichita
Zemplén
gluten
Whittaker
Corinth
Implant
Osamu
Kanazawa
Huelva
##nthaburi
NCKH
Haddad
beatbox
Ursula
Tarragon
Achile
IMAP
Talbot
skirt
Rollins
Megumi
Weisz
Revive
KHOÁN
Braxin
Goncourt
Ashika
Abdou
normal
GIAO
Ascent
Valtter
ruỗ
Émil
Yazidi
##ltimo
##droid
Giorgi
##limét
##auss
##akata
##avour
##ologie
##haikul
##ochrus
##study
Osborn
##stephanos
100231244
Alternative
Benevento
Chamberlin
Goulding
Graduate
Initiative
Liège
Lockerbie
Macroglossum
McKay
Tashken
Topalov
Uyghur
Xerxe
brasiliensis
hooligan
learning
Commerce
megawatt
Vilnius
audiophile
glycerin
Evgeni
Akhenat
Aristide
KienLongBank
Petkovic
Console
McCann
Origami
Vegeta
Kotaku
Ardahan
Coleophora
Akpan
Carrey
Processor
##igui
##jagah
Gyre
Bhag
##lissa
Phượ
Morav
Kantar
##buzz
##asquez
Dượ
##lavơ
##raction
Messerschmi
Uzbek
Andujar
Bacolod
Fresno
Goiás
Guzmán
MacDonald
Manucian
Mehrdad
Stretford
Tuttosport
Uppsala
borneensis
Ogilvy
Scream
##otentilla
Capdevil
Beaver
Katarina
Prieto
SINH
Montanes
Hadrian
Pravy
Sinmun
Hetman
Khosra
Charlene
Curcu
Moreira
Buckley
##uickstep
##neuron
##ophobia
Imoge
##TMU
Currie
##obart
peroxi
Mutant
Georgiev
##ochroa
##0402
Salz
Conserva
Melitt
process
##7102
##plaga
Plati
##raptor
##ỐNG
##Finance
Clemens
##iebold
##system
##Sync
##phenyl
Trochos
Dominik
isoflavon
##oeckeler
Aranzub
Chedjou
Contador
Foxcatcher
Gryfice
IDECAF
Kiessling
Kuszczak
Kwajalein
Ludogorets
Mombasa
Mujahid
Opportunit
Parallelia
Patagonia
Peloponnes
Rizzoli
Scarabae
Schweinf
Stoltenberg
Takumi
Triangle
Yilmaz
bkav
eVăn
flavescens
nigrescens
pulchra
snooker
Châtel
Scramble
Clostridi
Kovacevic
102010001
Afghan
Smirnov
Material
GOLD
Vazquez
Enfamil
PHÙNG
Xayabur
Repair
Yakubu
Elmander
Huayra
Magnum
refresh
Kampala
THIỆN
Crunch
Campagna
Piazza
Capture
Clyne
PAPI
sphaer
Farfan
